[PAD]
[UNK]
[CLS]
[SEP]
[MASK]
<nl>
!
"
#
$
%
&
'
(
)
*
+
,
-
.
/
0
1
2
3
4
5
6
7
8
9
:
;
<
=
>
?
@
[
\
]
^
_
`
a
b
c
d
e
f
g
h
i
j
k
l
m
n
o
p
q
r
s
t
u
v
w
x
y
z
{
|
}
~
¡
¢
£
¤
¥
¦
§
¨
©
ª
«
¬
®
¯
°
±
²
³
´
µ
¶
·
¸
¹
º
»
¼
½
¾
¿
×
ß
æ
ð
÷
ø
þ
đ
ħ
ı
ĳ
ĸ
ł
ŋ
œ
ŧ
ſ
ƒ
ƕ
ƣ
ƪ
ƶ
ƿ
ǀ
ǁ
ǂ
ǃ
ǝ
ȝ
ȥ
ȵ
ɐ
ɑ
ɒ
ɓ
ɔ
ɕ
ɖ
ɗ
ɘ
ə
ɚ
ɛ
ɜ
ɞ
ɟ
ɡ
ɢ
ɣ
ɤ
ɥ
ɦ
ɨ
ɪ
ɫ
ɬ
ɭ
ɯ
ɲ
ɳ
ɴ
ɵ
ɷ
ɸ
ɹ
ɻ
ɾ
ɿ
ʀ
ʁ
ʂ
ʃ
ʅ
ʇ
ʈ
ʉ
ʊ
ʋ
ʌ
ʍ
ʎ
ʏ
ʐ
ʑ
ʒ
ʔ
ʕ
ʖ
ʘ
ʙ
ʚ
ʜ
ʝ
ʟ
ʤ
ʦ
ʧ
ʨ
ʭ
ʰ
ʱ
ʲ
ʷ
ʹ
ʺ
ʻ
ʼ
ʽ
ʾ
ʿ
ˀ
ˁ
˂
˃
ˆ
ˇ
ˈ
ˉ
ˊ
ˋ
ˌ
ˍ
ˏ
ː
ˑ
˒
˓
˘
˙
˚
˜
˝
ˠ
ˢ
ˣ
ˤ
˥
˦
˧
˨
˩
˭
˳
˴
˵
˶
˹
˺
͵
΄
α
β
γ
δ
ε
ζ
η
θ
ι
κ
λ
μ
ν
ξ
ο
π
ρ
ς
σ
τ
υ
φ
χ
ψ
ω
ϕ
ϖ
ϛ
ϝ
ϵ
϶
а
б
в
г
д
е
ж
з
и
к
л
м
н
о
п
р
с
т
у
ф
х
ц
ч
ш
щ
ъ
ы
ь
э
ю
я
ђ
є
ѕ
і
ј
љ
њ
ћ
џ
ѡ
ѣ
ѧ
ѵ
҈
҉
ґ
ғ
ҕ
қ
ң
ҥ
ҫ
ү
ұ
ҳ
һ
ӈ
ӏ
ӕ
ә
ӡ
ө
ԅ
՞
ա
բ
գ
դ
ե
զ
է
ը
թ
ժ
ի
լ
խ
ծ
կ
հ
ձ
ղ
ճ
մ
յ
ն
շ
ո
չ
պ
ջ
ռ
ս
վ
տ
ր
ց
ւ
փ
ք
օ
և
־
א
ב
ג
ד
ה
ו
ז
ח
ט
י
ך
כ
ל
ם
מ
ן
נ
ס
ע
ף
פ
ץ
צ
ק
ר
ש
ת
װ
ױ
ײ
״
׶
،
؟
ء
ا
ب
ة
ت
ث
ج
ح
خ
د
ذ
ر
ز
س
ش
ص
ض
ط
ظ
ع
غ
ـ
ف
ق
ك
ل
م
ن
ه
و
ى
ي
١
٥
٩
٭
ٱ
ٹ
ټ
پ
چ
ڈ
ژ
ڠ
ڡ
ک
گ
ں
ھ
ہ
ی
ے
۔
ە
۞
۩
۱
۳
۶
۹
ܐ
ܒ
ܕ
ܗ
ܘ
ܚ
ܝ
ܟ
ܠ
ܡ
ܢ
ܥ
ܪ
ܫ
ܬ
ݹ
ނ
ރ
އ
މ
ދ
ߐ
ः
अ
आ
इ
ई
उ
ऊ
ऋ
ए
ऐ
ओ
औ
क
ख
ग
घ
ङ
च
छ
ज
झ
ञ
ट
ठ
ड
ढ
ण
त
थ
द
ध
न
प
फ
ब
भ
म
य
र
ल
ळ
व
श
ष
स
ह
ऽ
ा
ि
ी
ॉ
ो
ौ
।
॥
०
१
२
३
४
५
६
७
८
९
ং
অ
আ
ই
উ
এ
ও
ক
খ
গ
ঘ
ঙ
চ
ছ
জ
ঞ
ট
ঠ
ড
ণ
ত
থ
দ
ধ
ন
প
ফ
ব
ভ
ম
য
র
ল
শ
ষ
স
হ
া
ি
ী
ে
০
১
২
ৰ
ৱ
৹
ਅ
ਆ
ਇ
ਈ
ਉ
ਊ
ਏ
ਕ
ਖ
ਗ
ਘ
ਚ
ਛ
ਜ
ਝ
ਟ
ਠ
ਡ
ਢ
ਣ
ਤ
ਥ
ਦ
ਧ
ਨ
ਪ
ਫ
ਬ
ਭ
ਮ
ਯ
ਰ
ਲ
ਵ
ਸ
ਹ
ਾ
ਿ
ੀ
ੜ
੨
੭
ક
ગ
ત
દ
ન
પ
મ
ર
લ
વ
શ
સ
હ
ા
િ
ી
ો
૭
ଓ
କ
ଘ
ଡ
ତ
ନ
ପ
ବ
ର
ଳ
ା
େ
୧
୨
அ
ஆ
இ
உ
எ
ஐ
ஒ
க
ங
ச
ஜ
ஞ
ட
ண
த
ந
ன
ப
ம
ய
ர
ற
ல
ள
ழ
வ
ஸ
ா
ி
ு
ூ
ெ
ே
ை
௰
ం
అ
ఆ
ఇ
ఉ
ఎ
క
గ
చ
జ
ట
ఠ
డ
త
థ
ద
న
ప
బ
భ
మ
య
ర
ల
ళ
వ
శ
ష
స
హ
ు
ూ
౨
౩
౪
ಂ
ಅ
ಎ
ಕ
ಗ
ಚ
ಜ
ಟ
ಠ
ಡ
ಢ
ಣ
ತ
ಥ
ದ
ನ
ಪ
ಬ
ಭ
ಮ
ಯ
ರ
ಲ
ಳ
ವ
ಶ
ಸ
ಹ
ಾ
ು
ೂ
ೃ
ೕ
ೖ
೭
ം
അ
എ
ക
ഗ
ങ
ച
ജ
ഞ
ട
ണ
ത
ദ
ന
പ
ഭ
മ
യ
ര
റ
ല
ള
വ
ശ
ഷ
സ
ഹ
ാ
ി
ീ
െ
േ
ං
අ
ක
ග
ජ
ට
ඩ
ණ
ත
ද
න
ඳ
ප
බ
ම
ය
ර
ල
ව
ශ
ස
හ
ළ
ෆ
ා
ැ
ෙ
෴
ก
ข
ค
ฅ
ฆ
ง
จ
ฉ
ช
ซ
ญ
ฎ
ฏ
ฐ
ฑ
ฒ
ณ
ด
ต
ถ
ท
ธ
น
บ
ป
ผ
ฝ
พ
ฟ
ภ
ม
ย
ร
ฤ
ล
ว
ศ
ษ
ส
ห
ฬ
อ
ฮ
ฯ
ะ
า
ำ
฿
เ
แ
โ
ใ
ไ
ๆ
๏
๐
๑
๒
๓
๕
๛
ກ
ຂ
ຄ
ງ
ຈ
ຊ
ຍ
ດ
ຕ
ຖ
ທ
ນ
ບ
ປ
ຜ
ພ
ມ
ຢ
ຣ
ລ
ວ
ສ
ຫ
ອ
ຮ
ະ
າ
ຳ
ຽ
ເ
ແ
ໂ
ໃ
ໄ
ໜ
་
༌
།
༎
༼
༽
༾
༿
ཀ
ཁ
ག
ང
ཅ
ཆ
ཇ
ཉ
ཏ
ཐ
ད
ན
པ
ཕ
བ
མ
ཙ
ཚ
ཛ
ཞ
ཟ
འ
ཡ
ར
ལ
ཤ
ས
ཧ
ཨ
ཫ
࿒
က
ခ
င
စ
ည
တ
ထ
ဒ
န
ပ
ဖ
ဘ
မ
ယ
ရ
လ
သ
အ
ါ
ာ
ေ
း
ျ
ြ
၊
ა
ბ
გ
დ
ე
ვ
ზ
თ
ი
კ
ლ
მ
ნ
ო
პ
რ
ს
ტ
უ
ფ
ქ
ღ
ყ
შ
ჩ
ც
ძ
წ
ჭ
ხ
ჯ
ჰ
ჷ
ჿ
ᄀ
ᄁ
ᄂ
ᄃ
ᄄ
ᄅ
ᄆ
ᄇ
ᄈ
ᄉ
ᄊ
ᄋ
ᄌ
ᄍ
ᄎ
ᄏ
ᄐ
ᄑ
ᄒ
ᅙ
ᅡ
ᅢ
ᅣ
ᅤ
ᅥ
ᅦ
ᅧ
ᅨ
ᅩ
ᅪ
ᅫ
ᅬ
ᅭ
ᅮ
ᅯ
ᅰ
ᅱ
ᅲ
ᅳ
ᅴ
ᅵ
ᆞ
ᆡ
ᆨ
ᆩ
ᆪ
ᆫ
ᆬ
ᆭ
ᆮ
ᆯ
ᆰ
ᆱ
ᆲ
ᆳ
ᆴ
ᆵ
ᆶ
ᆷ
ᆸ
ᆹ
ᆺ
ᆻ
ᆼ
ᆽ
ᆾ
ᆿ
ᇀ
ᇁ
ᇂ
ል
መ
ም
ር
ስ
ብ
ት
ን
አ
ደ
᎑
ᐃ
ᐕ
ᐖ
ᐛ
ᐜ
ᐟ
ᐠ
ᐡ
ᐢ
ᑦ
ᕕ
ᕗ
ᕙ
ᕤ
ᕦ
ᗜ
ᗢ
ᗣ
ᗨ
ᚢ
ᛁ
ក
ខ
គ
ង
ច
ជ
ញ
ដ
ណ
ត
ទ
ន
ប
ព
ភ
ម
យ
រ
ល
វ
ស
ហ
អ
ា
ើ
ៀ
េ
ែ
ោ
ៅ
ះ
។
០
ᠠ
ᯅ
ᴀ
ᴄ
ᴅ
ᴇ
ᴋ
ᴍ
ᴏ
ᴗ
ᴘ
ᴛ
ᴜ
ᴡ
ᴥ
ᴬ
ᴰ
ᴱ
ᴴ
ᴵ
ᴷ
ᴸ
ᴺ
ᴼ
ᴾ
ᴿ
ᵀ
ᵌ
ᵎ
ᵏ
ᵒ
ᵔ
ᵕ
ᵗ
ᵞ
ᵢ
ᵹ
ᶅ
ᶘ
‐
‑
‒
–
—
―
‖
‘
’
‚
‛
“
”
„
‟
†
‡
•
‣
․
‥
…
‧
‰
′
″
‵
‸
‹
›
※
‼
‽
‾
‿
⁃
⁄
⁇
⁈
⁉
⁍
⁎
⁝
⁰
⁴
⁵
⁶
⁷
⁸
⁹
⁺
⁻
⁼
⁽
⁾
ⁿ
₀
₁
₂
₃
₄
₅
₆
₊
₋
₌
₍
₎
ₐ
₤
₦
₩
₫
€
₱
₳
₴
₵
₹
⃝
⃞
⃢
⃣
⃤
ℂ
℃
℅
℉
ℌ
ℏ
ℓ
ℕ
№
℗
ℝ
℞
℡
™
ℤ
ℵ
ℹ
⅓
⅔
⅛
⅜
⅝
⅞
ⅰ
ⅱ
ⅲ
ⅳ
ⅴ
ⅵ
ⅶ
ⅷ
ⅸ
ⅹ
ⅺ
ⅿ
ↀ
ↂ
←
↑
→
↓
↔
↕
↖
↗
↘
↙
↝
↠
↦
↩
↪
↳
↵
↹
↺
⇄
⇆
⇌
⇐
⇑
⇒
⇔
⇧
⇨
⇩
∀
∂
∃
∅
∆
∇
∈
∊
∋
∏
∑
−
∕
∖
∗
∘
∙
√
∝
∞
∟
∠
∣
∥
∧
∨
∩
∪
∫
∮
∴
∵
∶
∼
∽
≃
≅
≈
≒
≔
≖
≡
≤
≥
≦
≧
≪
≫
≺
⊂
⊃
⊆
⊇
⊕
⊗
⊙
⊞
⊢
⊥
⊿
⋅
⋆
⋮
⋯
⌄
⌈
⌊
⌋
⌐
⌑
⌒
⌓
⌘
⌚
⌛
⌜
⌞
⌟
⌢
⌣
⌥
⌯
⎛
⎜
⎝
⎞
⎟
⎠
⎡
⎢
⎣
⎤
⎥
⎦
⎪
⏎
⏏
⏩
⏪
⏬
⏰
⏱
⏲
⏳
⏺
␣
⑅
⑉
①
②
③
④
⑤
⑥
⑦
⑧
⑨
⑩
⑪
⑫
⑬
⑭
⑮
⑯
⑲
⑴
⑵
⑶
⑷
⑸
⒈
⒉
⒊
⒋
⒌
⒍
ⓐ
ⓑ
ⓒ
ⓔ
ⓖ
ⓘ
ⓙ
ⓛ
ⓜ
ⓞ
ⓟ
ⓡ
ⓢ
ⓤ
─
━
│
┃
┈
┉
┊
┌
┍
┏
┐
┑
┓
└
┗
┘
┛
├
┡
┣
┤
┫
┬
┳
┴
┻
┼
╋
═
║
╔
╗
╚
╝
╥
╦
╧
╩
╬
╭
╮
╯
╰
╱
╲
╳
╴
╹
▀
▂
▃
▄
▅
▆
▇
█
▉
▋
▌
▍
▎
▏
░
▒
▓
▔
■
□
▣
▨
▩
▪
▫
▬
▰
▱
▲
△
▴
▵
▶
▷
▸
▹
►
▼
▽
▾
▿
◀
◁
◄
◆
◇
◈
◉
◊
○
◌
◍
◎
●
◐
◑
◒
◔
◕
◜
◝
◞
◟
◠
◡
◢
◣
◤
◥
◦
◯
◻
◼
◽
◾
☀
☁
☂
☃
☄
★
☆
☉
☍
☎
☐
☑
☓
☔
☕
☘
☛
☜
☝
☞
☟
☠
☣
☯
☰
☱
☲
☳
☴
☵
☶
☷
☸
☹
☺
☻
☼
☽
♀
♂
♈
♉
♊
♋
♌
♍
♎
♏
♐
♑
♒
♓
♔
♕
♚
♛
♠
♡
♢
♣
♤
♥
♦
♧
♨
♩
♪
♫
♬
♭
♮
♯
♰
♻
♾
♿
⚇
⚈
⚓
⚔
⚕
⚖
⚘
⚙
⚜
⚠
⚡
⚪
⚫
⚰
⚽
⚾
⛄
⛅
⛈
⛏
⛔
⛤
⛩
⛰
⛱
⛲
⛳
⛴
⛵
⛹
⛺
⛽
✂
✄
✅
✈
✉
✊
✋
✌
✍
✎
✏
✒
✓
✔
✕
✖
✘
✝
✡
✦
✧
✨
✩
✪
✭
✮
✯
✰
✲
✳
✴
✺
✻
✽
✿
❀
❁
❃
❄
❇
❌
❍
❎
❏
❓
❔
❕
❖
❗
❛
❜
❝
❞
❣
❤
❥
❦
❨
❩
❲
❳
❶
❷
❸
❹
❺
❻
❼
➔
➕
➖
➗
➜
➝
➞
➡
➢
➤
➰
➽
➿
⟨
⟩
⟪
⟫
⟹
⟺
⠀
⠁
⠂
⠃
⠄
⠇
⠈
⠉
⠋
⠑
⠙
⠛
⠟
⠸
⠻
⠿
⡀
⡇
⡟
⡿
⢀
⢿
⣀
⣄
⣆
⣤
⣦
⣴
⣶
⣷
⣼
⣽
⣾
⣿
⤴
⤵
⦁
⩽
⬅
⬆
⬇
⭐
⭑
⭕
ⴰ
ⵉ
ⵔ
ⵜ
⸜
⸝
⺣
⺼
⻆
⻑
⻣
⼀
⼁
⼂
⼃
⼆
⼈
⼊
⼒
⼝
⼤
⼦
⼩
⼯
⼼
⼿
⽂
⽅
⽇
⽉
⽣
⽤
⽥
⽽
⾁
⾃
⾏
⾞
⾯
⾼
⿰
、
。
〃
々
〆
〇
〈
〉
《
》
「
」
『
』
【
】
〒
〓
〔
〕
〖
〗
〘
〙
〜
〝
〞
〟
〡
〣
〰
〵
〻
〽
ぁ
あ
ぃ
い
ぅ
う
ぇ
え
ぉ
お
か
き
く
け
こ
さ
し
す
せ
そ
た
ち
っ
つ
て
と
な
に
ぬ
ね
の
は
ひ
ふ
へ
ほ
ま
み
む
め
も
ゃ
や
ゅ
ゆ
ょ
よ
ら
り
る
れ
ろ
ゎ
わ
ゐ
ゑ
を
ん
ゕ
゛
゜
ゝ
゠
ァ
ア
ィ
イ
ゥ
ウ
ェ
エ
ォ
オ
カ
キ
ク
ケ
コ
サ
シ
ス
セ
ソ
タ
チ
ッ
ツ
テ
ト
ナ
ニ
ヌ
ネ
ノ
ハ
ヒ
フ
ヘ
ホ
マ
ミ
ム
メ
モ
ャ
ヤ
ュ
ユ
ョ
ヨ
ラ
リ
ル
レ
ロ
ヮ
ワ
ヰ
ヱ
ヲ
ン
ヵ
ヶ
・
ー
ヽ
ㄅ
ㄆ
ㄇ
ㄈ
ㄉ
ㄊ
ㄋ
ㄌ
ㄍ
ㄎ
ㄏ
ㄐ
ㄑ
ㄒ
ㄓ
ㄔ
ㄕ
ㄖ
ㄗ
ㄘ
ㄙ
ㄚ
ㄛ
ㄜ
ㄝ
ㄞ
ㄟ
ㄠ
ㄡ
ㄢ
ㄣ
ㄤ
ㄥ
ㄦ
ㄧ
ㄨ
ㄩ
ㄪ
ㄫ
ㄬ
ㄭ
ㄱ
ㄲ
ㄳ
ㄴ
ㄵ
ㄶ
ㄷ
ㄸ
ㄹ
ㄺ
ㄻ
ㄼ
ㄽ
ㄾ
ㄿ
ㅀ
ㅁ
ㅂ
ㅃ
ㅄ
ㅅ
ㅆ
ㅇ
ㅈ
ㅉ
ㅊ
ㅋ
ㅌ
ㅍ
ㅎ
ㅏ
ㅐ
ㅑ
ㅒ
ㅓ
ㅔ
ㅕ
ㅖ
ㅗ
ㅘ
ㅙ
ㅚ
ㅛ
ㅜ
ㅝ
ㅞ
ㅟ
ㅠ
ㅡ
ㅢ
ㅣ
ㅤ
ㅱ
ㅸ
ㅿ
ㆀ
ㆁ
ㆆ
ㆍ
ㇰ
ㇱ
ㇷ
ㇻ
ㇼ
ㇽ
㈜
㈠
㈡
㈢
㈱
㈲
㉨
㉮
㉯
㉰
㉱
㊗
㊙
㊣
㋮
㌔
㌧
㍍
㎍
㎎
㎏
㎑
㎒
㎖
㎘
㎚
㎛
㎜
㎝
㎞
㎡
㎢
㎥
㎾
㏄
㏊
㐂
㐃
㐅
㐌
㑹
㒣
㓎
㓕
㓗
㓛
㔨
㕑
㕔
㕵
㕸
㖒
㖭
㖿
㗎
㗰
㗳
㘣
㘭
㙮
㚈
㚒
㚻
㛇
㝍
㝝
㝫
㝷
㞗
㡬
㡳
㢌
㢸
㤗
㥠
㦤
㦸
㧜
㨂
㨾
㩒
㩗
㩦
㪚
㫁
㬝
㬢
㬵
㬹
㯋
㯖
㯲
㰖
㳄
㳟
㴆
㴝
㴭
㶲
㷛
㷧
㷩
㷫
㸃
㹴
㺭
㻇
㻗
㽼
㾗
䀆
䀡
䁐
䁔
䁥
䁱
䃟
䃿
䄂
䄄
䄛
䅁
䆁
䇄
䇛
䈑
䈣
䉀
䊢
䊹
䌓
䌫
䏲
䐁
䐉
䓤
䓪
䓬
䕃
䕶
䛊
䜴
䠷
䣓
䤥
䥑
䦕
䨇
䨱
䭃
䱛
䱽
䲁
䲗
䲞
䳭
䴉
䴥
䶄
䶢
一
丁
丂
七
丄
丅
万
丈
三
上
下
丌
不
与
丏
丐
丑
专
且
丕
世
丗
丘
丙
业
丛
东
丝
丞
丟
両
丢
两
严
並
丧
丨
个
丫
中
丰
串
临
丶
丸
丹
为
主
丼
丽
举
丿
乀
乁
乂
乃
久
么
义
之
乌
乍
乎
乏
乐
乒
乓
乔
乕
乖
乗
乘
乙
乛
乜
九
乞
也
习
乡
书
乩
乭
买
乱
乳
乸
乽
乾
亀
亁
亂
亅
了
亇
予
争
亊
事
二
亍
于
亏
云
互
亓
五
井
亘
亙
亚
些
亜
亞
亟
亠
亡
亢
交
亥
亦
产
亨
亩
享
京
亭
亮
亰
亲
亳
亵
亶
亷
亹
人
亻
亿
什
仁
仂
仃
仄
仅
仆
仇
仉
今
介
仍
从
仏
仑
仓
仔
仕
他
仗
付
仙
仚
仝
仞
仟
仡
代
令
以
仨
仪
仫
们
仭
仮
仰
仲
仳
仵
件
价
任
仼
份
仿
企
伃
伉
伊
伋
伍
伎
伏
伐
休
伓
伕
众
优
伙
会
伛
伜
伝
伞
伟
传
伢
伤
伦
伩
伪
伫
伯
估
伱
伲
伴
伶
伷
伸
伹
伺
似
伽
伾
佀
佃
但
佇
佈
佉
位
低
住
佐
佑
体
佔
何
佖
佗
佘
余
佚
佛
作
佝
佞
佟
你
佢
佣
佤
佥
佩
佪
佬
佮
佯
佰
佳
併
佶
佷
佺
佻
佼
佽
佾
使
侁
侂
侃
侄
來
侈
侉
侊
例
侍
侏
侐
侑
侓
侔
侖
侗
侘
侚
供
依
侠
価
侣
侥
侦
侧
侨
侪
侬
侭
侮
侯
侵
侶
侷
侹
便
俀
俁
係
促
俄
俅
俇
俉
俊
俋
俌
俍
俎
俏
俐
俑
俓
俔
俗
俘
俙
俚
俛
保
俞
俟
俠
信
俢
俣
俤
俥
俨
俩
俪
俬
俭
修
俯
俰
俱
俳
俴
俵
俶
俸
俹
俺
俽
俾
倀
倂
倅
倆
倈
倉
個
倌
倍
倏
們
倒
倓
倔
倕
倖
倘
候
倚
倜
倞
借
倡
倢
倣
値
倥
倦
倧
倨
倩
倪
倫
倬
倭
倮
倶
倷
倹
债
倻
值
倾
偁
偃
假
偈
偉
偌
偍
偎
偏
偐
偑
偒
偓
偕
做
停
偟
健
偪
偰
偲
側
偵
偶
偷
偸
偽
偿
傀
傅
傈
傉
傋
傌
傍
傑
傒
傔
傕
傖
傘
備
傚
傜
傢
傣
傥
储
傩
傪
催
傭
傱
傲
傳
傴
債
傷
傻
傾
僂
僅
僆
僇
僉
僊
働
僎
像
僐
僑
僕
僖
僚
僞
僣
僥
僧
僩
僭
僮
僰
僱
僳
僴
僵
價
僻
僿
儀
儁
儂
億
儅
儆
儇
儈
儉
儋
儍
儐
儒
儔
儕
儘
儚
儛
儞
償
儡
優
儲
儷
儸
儺
儻
儼
儿
兀
允
元
兄
充
兆
兇
先
光
兊
克
兌
免
兎
児
兑
兒
兔
兕
兖
兗
党
兜
兟
兢
入
內
全
兩
兪
八
公
六
兮
兰
共
关
兴
兵
其
具
典
兹
养
兼
兽
冀
冂
冄
内
円
冇
冈
冉
冊
冋
册
再
冏
冐
冑
冒
冕
冖
冗
写
冚
军
农
冝
冠
冢
冤
冥
冧
冨
冩
冪
冫
冬
冮
冯
冰
冲
决
冴
况
冶
冷
冻
冼
冽
冾
冿
净
凃
凄
准
凇
凈
凉
凊
凋
凌
凍
凎
减
凑
凖
凙
凛
凜
凝
凞
几
凡
凤
処
凧
凩
凪
凭
凮
凯
凰
凱
凳
凴
凵
凶
凸
凹
出
击
凼
函
凿
刀
刁
刂
刃
刄
分
切
刈
刊
刋
刍
刎
刑
划
刓
刕
刖
列
刘
则
刚
创
初
删
判
別
刧
刨
利
刪
别
刭
刮
到
刳
刴
制
刷
券
刹
刺
刻
刼
剁
剂
剃
剄
則
剉
削
剋
剌
前
剎
剑
剔
剖
剛
剜
剝
剡
剣
剤
剥
剧
剩
剪
剮
副
剰
剱
割
剳
剴
創
剷
剽
剿
劃
劄
劇
劈
劉
劊
劌
劍
劏
劑
劒
劓
劔
力
劝
办
功
加
务
劣
劦
动
助
努
劫
劬
劭
励
劲
劳
労
劵
効
劻
劼
劾
势
勀
勁
勃
勅
勇
勉
勊
勋
勍
勐
勑
勒
勔
動
勖
勗
勘
務
勛
勝
勞
募
勢
勣
勤
勦
勧
勰
勱
勲
勳
勵
勷
勸
勹
勺
勻
勼
勾
勿
匀
匁
匂
匄
包
匆
匈
匋
匍
匏
匐
匕
化
北
匙
匚
匝
匠
匡
匣
匪
匭
匮
匯
匱
匸
匹
区
医
匽
匾
匿
區
十
千
卄
卅
卆
升
午
卉
半
卌
卍
华
协
卐
卑
卒
卓
協
单
卖
南
単
博
卜
卞
卟
占
卡
卢
卣
卤
卥
卦
卧
卨
卩
卫
卬
卮
卯
印
危
卲
即
却
卵
卷
卸
卹
卻
卽
卿
厂
厄
厅
历
厉
压
厌
厎
厓
厔
厕
厖
厘
厙
厚
厝
原
厠
厡
厢
厥
厦
厨
厩
厭
厮
厯
厰
厲
厳
厶
厹
去
县
叁
参
參
叄
叅
又
叉
及
友
双
反
収
发
叔
取
受
变
叙
叚
叛
叟
叠
叡
叢
口
古
句
另
叧
叨
叩
只
叫
召
叭
叮
可
台
叱
史
右
叵
叶
号
司
叹
叺
叻
叼
叽
吁
吃
各
吅
吆
吇
合
吉
吊
吋
同
名
后
吏
吐
向
吒
吓
吔
吕
吖
吗
吚
君
吝
吞
吟
吠
吡
吥
否
吧
吨
吩
含
听
吭
吮
启
吱
吲
吳
吴
吵
吶
吷
吸
吹
吻
吼
吽
吾
吿
呀
呁
呂
呃
呅
呆
呇
呈
呉
告
呋
呌
呍
呎
呐
呑
呔
呕
呗
员
呛
呜
呟
呠
呡
呢
呣
呤
呦
周
呪
呯
呰
呱
呲
味
呴
呵
呶
呷
呸
呺
呻
呼
命
呾
呿
咀
咁
咂
咃
咄
咆
咇
咈
咉
咊
咋
和
咎
咏
咐
咑
咒
咔
咕
咖
咗
咘
咙
咚
咝
咡
咢
咣
咤
咥
咦
咧
咨
咩
咪
咫
咬
咭
咮
咯
咱
咲
咳
咸
咺
咻
咼
咽
咾
咿
哀
品
哂
哄
哆
哇
哈
哉
哋
哌
响
哎
哏
哐
哑
哒
哔
哖
哗
哙
哚
哞
哟
員
哢
哣
哥
哦
哧
哨
哩
哪
哭
哮
哲
哷
哺
哼
哽
哿
唁
唂
唃
唄
唅
唆
唇
唉
唊
唎
唏
唐
唑
唒
唓
唔
唖
唗
唛
唞
唠
唤
唥
唦
唧
唨
唪
唫
唬
唭
售
唯
唰
唱
唳
唵
唶
唷
唸
唹
唻
唾
唿
啀
啁
啃
啄
啅
商
啇
啉
啊
啋
啍
問
啐
啓
啕
啖
啗
啜
啝
啞
啟
啡
啣
啤
啥
啦
啧
啩
啪
啫
啬
啮
啰
啱
啲
啵
啶
啷
啸
啹
啺
啻
啼
啾
啿
喀
喁
喂
喃
善
喆
喇
喈
喉
喊
喋
喎
喏
喐
喑
喔
喘
喙
喚
喛
喜
喝
喞
喟
喥
喧
喨
喩
喪
喫
喬
單
喰
喱
喲
喳
喵
営
喷
喹
喺
喻
喼
喽
嗁
嗄
嗅
嗆
嗇
嗉
嗌
嗎
嗑
嗒
嗓
嗔
嗖
嗗
嗙
嗚
嗜
嗝
嗞
嗟
嗡
嗢
嗣
嗤
嗥
嗦
嗨
嗩
嗪
嗮
嗯
嗰
嗱
嗲
嗶
嗷
嗺
嗻
嗽
嗾
嘀
嘂
嘅
嘆
嘈
嘉
嘌
嘍
嘎
嘏
嘓
嘔
嘖
嘗
嘘
嘚
嘛
嘜
嘞
嘟
嘢
嘣
嘤
嘥
嘧
嘩
嘭
嘮
嘯
嘰
嘱
嘲
嘴
嘵
嘶
嘸
嘹
嘻
嘿
噁
噂
噃
噉
噌
噍
噎
噏
噐
噓
噔
噗
噘
噙
噚
噛
噜
噝
噠
噢
噣
噤
噥
噦
器
噩
噪
噫
噬
噯
噱
噲
噴
噶
噸
噹
噺
噻
噼
嚀
嚄
嚅
嚆
嚇
嚈
嚌
嚎
嚏
嚐
嚒
嚓
嚕
嚗
嚙
嚜
嚟
嚡
嚢
嚣
嚤
嚥
嚦
嚧
嚨
嚩
嚫
嚭
嚮
嚳
嚴
嚶
嚷
嚸
嚹
嚼
嚿
囀
囁
囂
囃
囄
囇
囈
囉
囊
囌
囍
囎
囑
囒
囓
囔
囖
囗
囘
囚
四
囝
回
囟
因
囡
团
団
囤
囧
囪
囫
园
囮
囯
困
囱
囲
図
围
囷
囹
固
国
图
囿
圀
圃
圄
圆
圇
圈
圉
國
圌
圍
圏
圑
園
圓
圖
圗
團
圜
土
圡
圣
圦
圧
在
圩
圪
圭
圮
圯
地
圲
圳
圴
圷
圹
场
圻
圾
址
坂
坃
均
坊
坋
坌
坍
坎
坏
坐
坑
坔
块
坚
坛
坝
坞
坟
坠
坡
坤
坦
坧
坨
坩
坪
坫
坭
坮
坯
坰
坳
坴
坵
坷
坺
坻
坼
坽
垀
垂
垃
垄
垈
型
垌
垍
垒
垓
垕
垚
垛
垜
垝
垞
垟
垠
垡
垢
垣
垤
垦
垧
垩
垪
垫
垬
垭
垮
垰
垵
垶
垷
垸
垻
埂
埃
埇
埈
埋
城
埏
埐
埒
埓
埔
埕
埖
埗
埚
埜
埝
埞
域
埠
埡
埣
埤
埧
埭
埰
埲
埳
埴
埵
埶
執
埸
培
基
埻
埼
埽
埿
堀
堂
堃
堅
堆
堇
堈
堉
堊
堍
堎
堑
堔
堕
堙
堝
堞
堠
堡
堣
堤
堦
堧
堪
堯
堰
報
場
堵
堺
堿
塀
塁
塉
塊
塋
塌
塍
塏
塑
塒
塔
塗
塘
塙
塚
塜
塝
塞
塡
塢
塤
塩
填
塬
塭
塰
塱
塲
塵
塹
塼
塽
塾
墀
境
墅
墇
墈
墉
墊
墏
墓
増
墘
墙
墜
增
墟
墡
墨
墩
墬
墮
墳
墶
墺
墻
墾
墿
壁
壅
壆
壇
壊
壌
壎
壐
壑
壓
壕
壘
壙
壚
壜
壞
壟
壠
壢
壤
壩
士
壬
壮
壯
声
壱
売
壳
壶
壷
壹
壺
壻
壼
壽
夀
夂
处
夆
备
変
夊
夋
夌
复
夏
夑
夔
夕
外
夘
夙
多
夛
夜
够
夠
夢
夤
夥
大
天
太
夫
夬
夭
央
夯
失
夲
头
夷
夸
夹
夺
夾
奀
奁
奂
奄
奇
奈
奉
奋
奌
奎
奏
奐
契
奔
奕
奖
套
奘
奚
奝
奠
奡
奢
奥
奧
奨
奩
奪
奫
奬
奭
奮
女
奴
奵
奶
奸
她
奻
奼
好
妀
妁
如
妃
妄
妆
妇
妈
妊
妍
妏
妒
妓
妖
妗
妘
妙
妝
妞
妟
妠
妡
妢
妣
妤
妥
妦
妨
妬
妮
妯
妲
妳
妸
妹
妺
妻
妾
姃
姆
姈
姉
姊
始
姍
姐
姑
姒
姓
委
姖
姗
姘
姙
姚
姜
姝
姞
姣
姤
姥
姦
姨
姪
姫
姬
姮
姵
姶
姸
姹
姻
姿
娀
威
娃
娄
娅
娆
娇
娈
娉
娌
娍
娎
娑
娒
娓
娘
娚
娛
娜
娟
娠
娡
娣
娥
娩
娫
娯
娱
娲
娴
娶
娸
娼
婀
婁
婆
婇
婉
婊
婌
婐
婑
婓
婕
婚
婞
婠
婢
婦
婧
婪
婬
婭
婴
婶
婷
婺
婻
婼
婿
媁
媃
媄
媒
媓
媖
媗
媚
媛
媜
媞
媡
媤
媧
媬
媯
媲
媳
媵
媺
媼
媽
媾
媿
嫁
嫂
嫄
嫈
嫉
嫋
嫌
嫏
嫐
嫑
嫓
嫔
嫖
嫗
嫘
嫚
嫡
嫣
嫦
嫩
嫪
嫫
嫮
嫰
嫲
嫵
嫶
嫺
嫻
嫿
嬀
嬅
嬈
嬉
嬋
嬌
嬏
嬖
嬗
嬙
嬚
嬛
嬡
嬢
嬤
嬪
嬬
嬰
嬲
嬴
嬶
嬷
嬸
嬾
嬿
孀
孁
孃
孄
孅
孆
孌
子
孑
孓
孔
孕
孖
字
存
孙
孚
孛
孜
孝
孟
孢
季
孤
孥
学
孩
孪
孫
孬
孭
孮
孰
孱
孲
孳
孵
孶
學
孺
孻
孼
孽
孿
宀
宁
它
宄
宅
宇
守
安
宋
完
宍
宏
宒
宓
宕
宗
官
宙
定
宛
宜
宝
实
実
宠
审
客
宣
室
宥
宦
宧
宪
宫
宬
宮
宰
害
宴
宵
家
宸
容
宽
宾
宿
寀
寂
寃
寄
寅
密
寇
寉
寊
富
寐
寑
寒
寓
寔
寕
寗
寘
寚
寛
寜
寝
寞
察
寡
寢
寤
寥
實
寧
寨
審
寫
寬
寮
寯
寰
寳
寵
寶
寸
对
寺
寻
导
対
寿
封
専
尃
射
尅
将
將
專
尉
尊
尋
對
導
小
尐
少
尒
尓
尔
尕
尖
尘
尙
尚
尛
尝
尞
尟
尠
尢
尤
尧
尨
尪
尬
尭
就
尴
尶
尷
尸
尹
尺
尻
尼
尽
尾
尿
局
屁
层
屄
居
屆
屇
屈
屉
届
屋
屌
屍
屎
屏
屐
屑
屓
展
屘
屙
屛
屜
屝
属
屠
屡
屢
屣
層
履
屨
屬
屭
屮
屯
山
屹
屺
屻
屾
屿
岀
岁
岂
岆
岈
岌
岏
岐
岑
岔
岖
岗
岘
岙
岚
岛
岜
岠
岡
岢
岦
岨
岩
岫
岬
岭
岱
岳
岶
岷
岸
岹
岺
岻
岾
峄
峅
峇
峉
峋
峒
峘
峙
峠
峡
峤
峥
峦
峨
峩
峪
峭
峯
峰
峴
島
峻
峽
崀
崁
崂
崆
崇
崋
崍
崎
崐
崑
崔
崖
崗
崙
崚
崛
崞
崟
崠
崢
崤
崧
崩
崭
崮
崱
崴
崽
嵆
嵇
嵊
嵋
嵌
嵎
嵐
嵒
嵓
嵗
嵘
嵙
嵜
嵨
嵩
嵬
嵯
嵴
嵵
嵾
嶂
嶄
嶇
嶋
嶌
嶔
嶗
嶙
嶝
嶠
嶡
嶢
嶧
嶮
嶱
嶲
嶴
嶷
嶸
嶺
嶼
嶽
巂
巃
巄
巅
巉
巋
巌
巍
巑
巒
巓
巔
巖
巘
巛
巜
川
州
巠
巡
巢
巣
工
左
巧
巨
巩
巫
差
巯
巰
己
已
巳
巴
巷
巹
巻
巽
巾
巿
币
市
布
帅
帆
师
希
帎
帐
帑
帔
帕
帖
帘
帙
帚
帛
帜
帝
帤
帥
带
帧
師
席
帮
帯
帰
帳
帶
帷
常
帼
帽
幀
幂
幃
幄
幅
幇
幌
幔
幕
幗
幘
幚
幛
幞
幟
幡
幢
幣
幤
幪
幫
干
平
年
幵
并
幷
幸
幹
幺
幻
幼
幽
幾
广
庁
広
庄
庆
庇
庈
床
庋
序
庐
庑
庒
库
应
底
庖
店
庙
庚
府
庝
庞
废
庠
庤
庥
度
座
庫
庬
庭
庯
庲
庳
庵
庶
康
庸
庹
庾
廁
廂
廃
廄
廆
廇
廈
廉
廊
廋
廌
廍
廐
廓
廔
廕
廖
廙
廚
廛
廝
廞
廟
廠
廡
廢
廣
廨
廩
廪
廬
廮
廯
廰
廳
廴
廵
延
廷
廸
廹
建
廻
廼
廾
廿
开
弁
异
弃
弄
弇
弈
弉
弊
弋
弌
弍
式
弐
弑
弒
弓
弔
引
弖
弗
弘
弛
弟
张
弢
弥
弦
弧
弩
弭
弯
弱
弴
張
強
弹
强
弼
弽
弾
彀
彃
彅
彆
彈
彊
彌
彎
归
当
彔
录
彖
彗
彘
彙
彛
彜
彝
彡
形
彣
彤
彥
彦
彧
彩
彪
彫
彬
彭
彰
影
彳
彶
彷
役
彻
彼
彽
彿
往
征
徂
徃
径
待
徇
很
徉
徊
律
後
徍
徐
徑
徒
従
徕
得
徘
徙
徜
從
徠
御
徤
徥
徦
徧
徨
復
循
徫
徬
徭
微
徳
徴
徵
德
徸
徹
徼
徽
心
忄
必
忆
忉
忌
忍
忏
忐
忑
忒
忖
志
忘
忙
応
忝
忞
忟
忠
忡
忤
忧
忪
快
忭
忯
忱
忳
念
忸
忻
忽
忿
怀
态
怂
怆
怇
怍
怎
怏
怒
怔
怕
怖
怙
怛
怜
思
怠
怡
急
怦
性
怨
怩
怪
怮
怯
怱
怳
怴
怵
怹
总
怼
怿
恁
恂
恃
恅
恆
恊
恋
恍
恐
恒
恕
恙
恚
恠
恢
恣
恤
恥
恨
恩
恪
恫
恬
恭
恮
息
恰
恳
恴
恵
恶
恸
恺
恼
恽
恿
悄
悅
悆
悉
悊
悋
悌
悍
悏
悒
悔
悕
悖
悚
悛
悝
悟
悠
患
悤
悦
悧
您
悩
悪
悬
悭
悯
悰
悱
悲
悳
悴
悵
悶
悸
悻
悼
悽
悿
情
惆
惇
惊
惋
惎
惑
惓
惔
惕
惗
惘
惚
惛
惜
惟
惠
惡
惢
惣
惤
惦
惧
惨
惩
惫
惬
惭
惮
惯
惰
惱
惲
想
惴
惶
惸
惹
惺
惻
愀
愁
愃
愆
愈
愉
愍
愎
意
愐
愓
愔
愕
愖
愚
愛
愜
感
愠
愣
愤
愧
愨
愫
愬
愰
愴
愷
愼
愽
愾
愿
慂
慄
慇
慈
慊
態
慌
慍
慎
慑
慒
慓
慕
慘
慙
慚
慜
慟
慢
慣
慤
慥
慧
慨
慫
慬
慮
慰
慱
慳
慵
慶
慷
慼
慾
憂
憇
憊
憋
憍
憎
憐
憑
憒
憓
憔
憕
憘
憙
憚
憟
憤
憧
憨
憩
憫
憬
憮
憲
憶
憸
憺
憾
懂
懃
懇
懈
應
懊
懋
懌
懍
懐
懒
懚
懞
懟
懢
懣
懦
懧
懨
懮
懲
懵
懶
懷
懸
懺
懼
懽
懾
懿
戀
戅
戆
戇
戈
戊
戌
戍
戎
戏
成
我
戒
戓
戔
戕
或
战
戙
戚
戛
戟
戡
戢
戥
戦
戩
截
戮
戯
戰
戱
戲
戳
戴
戶
户
戸
戻
戽
戾
房
所
扁
扂
扃
扆
扇
扈
扉
手
扌
才
扎
扐
扑
扒
打
扔
払
扖
托
扙
扚
扛
扞
扠
扡
扢
扣
扥
扦
执
扩
扫
扬
扭
扮
扯
扰
扱
扲
扳
扶
批
扺
扼
扽
找
承
技
抃
抄
抅
抆
抉
把
抌
抑
抒
抓
抔
投
抖
抗
折
抚
抛
抜
抝
択
抠
抢
护
报
抦
抨
披
抬
抯
抱
抳
抵
抹
抺
押
抽
抿
拂
拃
拄
担
拆
拇
拈
拉
拊
拋
拌
拍
拎
拏
拐
拑
拒
拓
拔
拕
拖
拗
拘
拙
拚
招
拜
拝
拟
拠
拡
拢
拣
拥
拦
拧
拨
择
括
拭
拮
拯
拱
拳
拴
拵
拶
拷
拹
拺
拼
拽
拾
拿
持
挂
指
挈
按
挌
挍
挎
挐
挑
挖
挙
挚
挛
挝
挞
挟
挠
挡
挣
挤
挥
挨
挪
挫
挭
振
挲
挵
挷
挹
挺
挻
挼
挽
挾
挿
捂
捃
捄
捅
捆
捈
捉
捊
捋
捌
捍
捎
捏
捐
捒
捕
捗
捚
捜
捞
损
捡
换
捣
捥
捧
捨
捩
捫
捭
据
捰
捱
捲
捶
捷
捺
捻
捽
掀
掁
掂
掃
掄
掇
授
掉
掋
掌
掍
掎
掏
掐
排
掓
掕
掖
掗
掘
掙
掛
掞
掟
掠
採
探
掣
掤
接
掦
控
推
掩
措
掫
掬
掮
掯
掰
掲
掳
掴
掷
掸
掹
掺
掻
掾
揀
揃
揄
揆
揈
揉
揍
描
提
揑
插
揖
揚
換
揜
揝
揞
揠
握
揣
揤
揦
揩
揪
揭
揮
揰
揲
揳
援
揵
揶
揷
揸
揹
揺
揻
揼
揽
揾
搁
搂
搅
搆
搋
搌
損
搏
搐
搓
搔
搖
搗
搜
搞
搠
搡
搢
搣
搥
搦
搧
搨
搪
搬
搭
搯
搲
搳
搴
搵
搶
携
搽
搾
摀
摁
摂
摃
摄
摆
摇
摊
摌
摎
摏
摑
摒
摔
摘
摙
摛
摜
摞
摟
摠
摡
摥
摧
摩
摭
摯
摰
摱
摳
摴
摵
摶
摷
摸
摹
摺
摻
摼
摽
撂
撃
撅
撇
撈
撐
撑
撒
撓
撕
撗
撘
撙
撚
撝
撞
撟
撠
撢
撣
撤
撥
撩
撫
撬
播
撮
撰
撲
撳
撷
撸
撹
撻
撼
撾
撿
擀
擁
擂
擄
擅
擇
擊
擋
操
擎
擐
擒
擔
擕
擗
擘
據
擝
擠
擡
擢
擣
擤
擥
擦
擧
擬
擭
擯
擰
擱
擲
擴
擶
擷
擸
擺
擻
擼
擾
攀
攄
攆
攋
攏
攒
攔
攖
攘
攙
攜
攝
攞
攡
攢
攣
攤
攥
攦
攪
攫
攬
支
攰
攴
攵
收
攷
攸
改
攺
攻
攽
放
政
故
效
敉
敌
敍
敎
敏
救
敔
敕
敖
敗
敘
教
敛
敝
敞
敢
散
敦
敬
数
敲
整
敵
敷
數
斂
斃
斅
文
斉
斋
斌
斎
斐
斑
斓
斕
斗
料
斛
斜
斟
斡
斤
斥
斧
斩
斫
斬
断
斯
新
斱
斲
斷
方
於
施
斿
旁
旂
旃
旄
旅
旆
旉
旋
旌
旎
族
旒
旖
旗
旛
无
旡
既
旣
日
旦
旧
旨
早
旬
旭
旮
旯
旰
旱
旲
旳
旴
旵
时
旷
旸
旺
旻
旼
旽
旿
昀
昂
昃
昅
昆
昇
昉
昊
昋
昌
昍
明
昏
昐
昑
易
昔
昕
昖
昙
昜
昝
昞
星
映
昡
昤
春
昧
昨
昩
昪
昫
昭
是
昰
昱
昴
昵
昶
昷
昺
昻
昼
显
晁
時
晃
晄
晈
晉
晊
晋
晌
晏
晒
晓
晔
晕
晖
晗
晙
晚
晛
晝
晞
晟
晡
晢
晣
晤
晥
晦
晧
晨
晩
晫
普
景
晰
晳
晴
晶
晷
晸
智
晾
暁
暂
暄
暅
暇
暈
暉
暊
暋
暌
暎
暏
暐
暑
暕
暖
暗
暘
暝
暠
暢
暦
暧
暨
暪
暫
暮
暱
暲
暴
暸
暹
暻
暾
曁
曄
曆
曇
曈
曉
曌
曖
曙
曚
曜
曝
曠
曡
曦
曨
曩
曪
曬
曮
曰
曱
曲
曳
更
曵
曷
書
曹
曺
曻
曼
曽
曾
替
最
會
月
有
朊
朋
服
朏
朐
朒
朓
朔
朕
朖
朗
朘
望
朝
朞
期
朣
朥
朦
朧
木
朩
未
末
本
札
朮
术
朱
朳
朴
朵
朶
朸
机
朼
朽
朿
杀
杁
杂
权
杆
杈
杉
杋
杌
杍
李
杏
材
村
杓
杖
杙
杜
杞
束
杠
条
杢
杣
杤
来
杦
杧
杨
杪
杬
杭
杮
杯
杰
東
杲
杳
杵
杷
杻
杼
松
板
极
构
枇
枉
枊
枋
枌
析
枒
枓
枕
枖
林
枘
枚
果
枝
枞
枠
枡
枢
枣
枥
枦
枧
枩
枪
枫
枬
枭
枮
枯
枰
枱
枳
枴
枵
架
枷
枸
枹
枺
枻
枾
柀
柁
柃
柄
柆
柉
柊
柏
某
柑
柒
染
柔
柗
柘
柙
柚
柜
柝
柞
柟
柠
柢
柤
查
柩
柬
柭
柯
柰
柱
柳
柴
柵
柷
柸
柺
査
柽
柾
柿
栁
栂
栃
栄
栅
标
栈
栉
栋
栍
栎
栏
栐
树
栒
栓
栖
栗
栘
栜
栝
栞
校
栢
栥
栩
株
栫
栱
栲
栳
栴
样
核
根
栻
格
栽
栾
桀
桁
桂
桃
桄
桅
框
案
桉
桌
桎
桐
桑
桒
桓
桔
桕
桙
桜
桝
桟
桢
档
桥
桦
桧
桨
桩
桫
桯
桱
桲
桴
桶
桷
桸
桻
桼
桿
梁
梂
梃
梅
梆
梉
梏
梓
梔
梗
梘
梛
條
梟
梠
梢
梣
梦
梧
梨
梭
梯
械
梱
梲
梳
梵
梶
梼
梽
检
棃
棄
棆
棈
棉
棊
棋
棍
棐
棑
棒
棓
棕
棖
棗
棘
棚
棟
棠
棡
棣
棧
棨
棪
棫
棭
森
棯
棰
棱
棲
棵
棷
棹
棺
棻
棼
椀
椂
椅
椇
椋
植
椎
椏
椒
椗
椙
椚
椛
検
椥
椨
椪
椭
椰
椱
椴
椵
椶
椹
椼
椽
椿
楂
楊
楓
楔
楕
楗
楙
楚
楛
楜
楝
楞
楠
楡
楢
楣
楦
楧
楨
楩
楪
楫
楬
業
楮
楯
楱
楳
極
楷
楸
楹
楺
楼
楽
概
榄
榆
榈
榉
榊
榍
榎
榑
榔
榕
榖
榘
榙
榚
榛
榜
榢
榣
榤
榥
榦
榧
榨
榫
榭
榮
榲
榴
榶
榷
榻
榿
槁
槃
槇
槈
槊
構
槌
槍
槎
槐
槑
槓
様
槙
槛
槟
槤
槨
槩
槪
槫
槭
槰
槱
槲
槳
槺
槻
槽
槿
樁
樂
樅
樊
樋
樑
樒
樓
樔
樕
樖
樗
樘
標
樛
樜
樞
樟
模
樣
樨
権
横
樫
樱
樴
樵
樸
樹
樺
樻
樽
樾
橃
橄
橅
橇
橈
橋
橐
橒
橕
橖
橘
橙
橚
橛
橞
機
橡
橢
橦
橪
橫
橯
橱
橹
橽
橾
橿
檀
檁
檄
檉
檊
檍
檎
檐
檑
檔
檗
檜
檞
檟
檠
檡
檢
檣
檥
檦
檨
檪
檫
檬
檮
檯
檲
檳
檸
檻
檽
櫂
櫃
櫈
櫓
櫚
櫛
櫝
櫞
櫟
櫣
櫥
櫧
櫨
櫪
櫫
櫬
櫱
櫲
櫳
櫶
櫸
櫺
櫻
櫼
欄
欅
欉
權
欌
欏
欐
欒
欓
欖
欝
欞
欠
次
欢
欣
欤
欥
欧
欬
欲
欵
欷
欸
欹
欺
欽
款
歃
歆
歇
歉
歌
歎
歐
歓
歔
歙
歛
歟
歡
止
正
此
步
武
歧
歩
歪
歯
歲
歳
歴
歷
歸
歹
歺
死
歼
歿
殁
殂
殃
殄
殆
殇
殉
殊
残
殍
殒
殓
殖
殘
殛
殞
殡
殤
殪
殫
殭
殮
殯
殲
殳
殴
段
殷
殺
殻
殼
殽
殿
毀
毁
毂
毅
毆
毋
毌
母
毎
每
毐
毑
毒
毓
比
毕
毖
毗
毘
毙
毛
毞
毟
毡
毫
毬
毯
毳
毽
氂
氅
氈
氊
氏
氐
民
氓
气
氕
氖
気
氘
氙
氚
氛
氟
氡
氢
氣
氤
氦
氧
氨
氩
氪
氫
氬
氮
氯
氰
氳
水
氵
氷
永
氹
氽
氾
汀
汁
求
汆
汇
汉
汊
汋
汎
汏
汐
汔
汕
汗
汙
汚
汛
汜
汝
汞
江
池
污
汤
汧
汨
汩
汪
汭
汯
汰
汲
汴
汶
汹
決
汽
汾
沁
沂
沃
沄
沅
沆
沇
沈
沉
沌
沏
沐
沒
沓
沔
沖
沘
沙
沚
沛
沟
没
沢
沣
沥
沦
沧
沪
沫
沬
沭
沮
沱
河
沴
沸
油
沺
治
沼
沽
沾
沿
況
泂
泄
泅
泆
泉
泊
泌
泎
泐
泓
泔
法
泖
泗
泙
泚
泛
泝
泟
泠
泡
波
泣
泥
注
泪
泫
泮
泯
泰
泱
泳
泵
泷
泸
泻
泼
泽
泾
泿
洁
洄
洊
洋
洌
洎
洐
洑
洒
洗
洙
洛
洞
洟
洢
津
洧
洨
洩
洪
洫
洭
洮
洱
洲
洳
洵
洶
洸
洹
洺
活
洼
洽
派
流
浄
浅
浆
浇
浊
测
浍
济
浏
浑
浒
浓
浔
浙
浚
浜
浞
浠
浣
浤
浥
浦
浩
浪
浬
浮
浯
浴
浵
海
浸
浹
浼
浿
涂
涅
涇
消
涉
涌
涍
涎
涏
涑
涓
涔
涕
涙
涛
涜
涝
涞
涟
涠
涡
涣
涤
润
涧
涨
涩
涪
涬
涮
涯
涱
液
涴
涵
涶
涷
涸
涼
涿
淀
淄
淅
淆
淇
淉
淊
淋
淌
淍
淏
淐
淑
淒
淕
淖
淘
淙
淚
淛
淝
淞
淡
淤
淥
淦
淨
淩
淪
淫
淬
淮
淯
淰
深
淳
淵
淶
混
淸
淹
淺
添
淼
清
渇
済
渉
渊
渋
渌
渍
渎
渐
渓
渔
渕
渗
渙
渚
減
渝
渟
渠
渡
渢
渣
渤
渥
渦
温
渫
測
渭
港
渲
渴
渶
游
渺
渼
渽
渾
湃
湄
湅
湉
湊
湋
湌
湍
湎
湑
湓
湔
湖
湘
湛
湜
湝
湞
湟
湣
湧
湫
湮
湯
湲
湳
湴
湶
湼
湾
湿
満
溂
溃
溅
溆
溈
溉
溋
溌
溍
溎
溏
源
準
溘
溙
溜
溝
溟
溡
溢
溤
溥
溦
溧
溪
溫
溯
溱
溲
溴
溵
溶
溷
溺
溼
溽
滁
滂
滄
滅
滆
滇
滈
滉
滊
滋
滌
滎
滏
滑
滓
滔
滕
滖
滘
滙
滚
滛
滝
滞
满
滢
滤
滥
滦
滨
滩
滬
滯
滲
滳
滴
滷
滸
滹
滾
滿
漁
漂
漆
漉
漏
漑
漒
漓
演
漕
漖
漙
漚
漠
漢
漣
漥
漩
漪
漫
漬
漯
漱
漲
漳
漵
漸
漼
漽
漾
漿
潁
潄
潅
潇
潍
潑
潓
潔
潗
潘
潙
潚
潛
潜
潝
潞
潟
潡
潢
潤
潦
潭
潮
潯
潰
潲
潴
潵
潷
潸
潺
潻
潼
潽
潾
潿
澀
澁
澂
澄
澆
澇
澈
澋
澌
澍
澎
澐
澔
澕
澗
澚
澜
澟
澠
澡
澣
澤
澥
澧
澪
澮
澯
澱
澳
澴
澶
澹
澾
激
濁
濂
濃
濆
濉
濊
濑
濒
濔
濕
濘
濙
濚
濛
濞
濟
濠
濡
濤
濩
濫
濬
濮
濯
濰
濱
濳
濵
濶
濹
濺
濼
濾
瀁
瀂
瀅
瀆
瀉
瀋
瀍
瀏
瀑
瀕
瀘
瀚
瀛
瀜
瀝
瀞
瀟
瀠
瀡
瀣
瀦
瀧
瀨
瀬
瀰
瀲
瀷
瀹
瀼
瀾
灃
灄
灊
灌
灏
灑
灒
灕
灘
灜
灝
灞
灟
灠
灣
灤
灩
火
灬
灭
灯
灰
灵
灶
灸
灼
災
灾
灿
炀
炁
炅
炆
炇
炉
炊
炎
炑
炒
炓
炔
炕
炖
炘
炙
炜
炟
炡
炤
炩
炫
炬
炭
炮
炯
炱
炳
炷
炸
点
為
炻
炼
炽
烁
烂
烃
烇
烈
烊
烋
烏
烔
烕
烘
烙
烚
烛
烜
烝
烟
烤
烦
烧
烨
烩
烫
烬
热
烯
烱
烴
烷
烹
烺
烽
焄
焉
焊
焌
焓
焔
焕
焖
焗
焘
焙
焚
焜
焞
焟
焠
無
焢
焦
焯
焰
焱
然
焼
焾
焿
煀
煄
煅
煆
煇
煉
煊
煋
煌
煎
煏
煐
煑
煒
煕
煖
煙
煚
煜
煞
煢
煤
煥
煦
照
煨
煩
煬
煮
煱
煲
煳
煵
煸
煺
煻
煽
熀
熄
熅
熇
熈
熊
熏
熒
熔
熕
熖
熗
熙
熚
熜
熝
熟
熠
熨
熬
熱
熲
熳
熵
熷
熹
熺
熾
熿
燁
燂
燃
燄
燈
燉
燊
燋
燎
燏
燐
燑
燒
燔
燕
燗
燘
燙
燚
燜
燝
營
燠
燥
燦
燧
燩
燬
燭
燮
燴
燵
燶
燸
燹
燻
燼
燾
燿
爀
爆
爈
爉
爌
爍
爐
爔
爕
爖
爙
爛
爝
爤
爨
爪
爬
爭
爰
爱
爲
爵
父
爷
爸
爹
爺
爻
爼
爽
爾
爿
牀
牁
牂
牆
片
版
牋
牌
牍
牒
牓
牖
牘
牙
牚
牛
牝
牟
牠
牡
牢
牦
牧
物
牯
牲
牴
牵
特
牺
牽
牾
犀
犁
犂
犄
犇
犊
犍
犒
犖
犘
犛
犠
犢
犧
犨
犬
犭
犮
犯
犰
犴
状
犷
犸
犹
犼
犽
狀
狁
狂
狃
狄
狅
狆
狈
狍
狎
狐
狒
狓
狔
狗
狙
狛
狟
狠
狡
狢
狨
狩
独
狭
狮
狱
狳
狷
狸
狹
狻
狼
狽
猁
猄
猇
猊
猋
猎
猕
猖
猗
猙
猛
猜
猝
猞
猟
猢
猥
猨
猩
猪
猫
猬
献
猯
猱
猴
猶
猷
猻
猾
猿
獁
獃
獄
獅
獌
獍
獎
獏
獐
獒
獗
獠
獣
獨
獪
獫
獬
獭
獮
獰
獱
獲
獴
獵
獷
獸
獺
獻
獼
獾
玀
玁
玃
玄
玅
玆
率
玉
玊
王
玎
玏
玑
玒
玓
玕
玖
玗
玘
玛
玟
玠
玡
玢
玥
玦
玧
玨
玩
玫
玭
玮
环
现
玲
玳
玵
玶
玷
玹
玺
玻
玼
玿
珀
珂
珅
珈
珉
珊
珌
珍
珎
珏
珐
珑
珒
珓
珖
珘
珙
珝
珞
珠
珣
珤
珥
珦
珧
珨
珩
珪
珫
班
珮
珱
珲
珵
珷
珸
珹
珺
珽
現
琁
球
琄
琅
理
琇
琉
琊
琋
琌
琍
琏
琐
琓
琔
琕
琚
琛
琜
琠
琡
琢
琤
琥
琦
琨
琪
琫
琬
琮
琯
琰
琲
琳
琴
琵
琶
琹
琺
琼
琿
瑀
瑁
瑂
瑄
瑅
瑆
瑈
瑉
瑊
瑋
瑍
瑎
瑑
瑒
瑔
瑕
瑗
瑙
瑚
瑛
瑜
瑝
瑞
瑟
瑠
瑢
瑣
瑤
瑧
瑨
瑩
瑪
瑫
瑬
瑭
瑮
瑯
瑰
瑱
瑲
瑳
瑴
瑶
瑷
瑽
瑾
璀
璁
璂
璃
璄
璆
璇
璈
璉
璋
璎
璐
璔
璘
璜
璝
璞
璟
璠
璡
璣
璥
璦
璧
璨
璩
璪
璫
璮
環
璲
璵
璹
璽
璿
瓈
瓊
瓌
瓏
瓒
瓔
瓖
瓘
瓚
瓛
瓜
瓞
瓠
瓢
瓣
瓤
瓦
瓩
瓫
瓮
瓯
瓲
瓴
瓶
瓷
瓹
瓿
甁
甂
甃
甄
甌
甍
甑
甓
甕
甖
甘
甙
甚
甜
甞
生
甡
產
産
甥
甦
用
甩
甪
甫
甬
甭
甯
田
由
甲
申
甴
电
男
甸
町
画
甾
畀
畄
畅
畇
畈
畊
畋
界
畎
畏
畑
畓
畔
留
畚
畛
畜
畝
畠
畡
畢
畤
略
畦
畧
番
畫
畬
畯
異
畲
畳
畴
畵
當
畷
畸
畹
畺
畿
疃
疆
疇
疉
疊
疋
疍
疎
疏
疐
疑
疒
疔
疗
疙
疚
疝
疟
疡
疢
疣
疤
疥
疪
疫
疮
疯
疱
疲
疳
疴
疵
疸
疹
疼
疽
疾
痀
痂
痄
病
症
痈
痉
痊
痌
痍
痒
痔
痕
痘
痙
痛
痞
痠
痢
痣
痤
痧
痩
痪
痫
痰
痱
痲
痳
痴
痷
痹
痺
痼
痾
痿
瘀
瘁
瘂
瘇
瘉
瘋
瘌
瘍
瘐
瘓
瘕
瘖
瘙
瘜
瘞
瘟
瘠
瘡
瘢
瘤
瘦
瘧
瘩
瘫
瘰
瘳
瘴
瘸
瘺
瘻
瘼
瘾
癀
療
癃
癆
癇
癈
癋
癌
癎
癑
癒
癖
癗
癘
癜
癞
癟
癡
癢
癣
癤
癥
癦
癧
癩
癪
癫
癬
癭
癮
癯
癰
癱
癲
癶
癸
癹
発
登
發
白
百
癿
皀
皁
皂
皃
的
皅
皆
皇
皈
皋
皎
皐
皓
皖
皙
皚
皜
皝
皞
皤
皥
皮
皰
皱
皴
皷
皸
皺
皿
盂
盃
盅
盆
盈
益
盌
盍
盎
盏
盐
监
盒
盔
盖
盗
盘
盛
盜
盞
盟
盡
監
盤
盥
盦
盧
盩
盪
盬
目
盯
盰
盱
盲
直
相
盹
盼
盾
眀
省
眄
眅
眇
眈
眉
看
県
眒
眕
眙
眚
眛
眜
眞
真
眠
眥
眦
眨
眩
眭
眯
眳
眶
眷
眸
眺
眼
眾
着
睁
睄
睇
睌
睍
睎
睏
睐
睑
睒
睙
睚
睛
睜
睞
睟
睡
睢
督
睥
睦
睨
睩
睪
睫
睬
睭
睱
睹
睺
睽
睾
睿
瞄
瞅
瞇
瞉
瞋
瞌
瞎
瞑
瞒
瞓
瞜
瞞
瞟
瞠
瞥
瞧
瞩
瞪
瞬
瞭
瞰
瞳
瞹
瞻
瞼
瞽
瞿
矇
矌
矍
矓
矖
矗
矚
矛
矜
矝
矢
矣
知
矧
矩
矫
矬
短
矮
矯
矱
石
矶
矸
矻
矼
矽
矾
矿
砀
码
砂
砃
砈
砌
砍
砑
砒
研
砕
砖
砚
砜
砝
砟
砣
砥
砦
砧
砩
砫
砬
砭
砮
砰
砲
破
砵
砷
砸
砹
砺
砻
砼
砾
砿
础
硂
硃
硅
硊
硌
硍
硏
硐
硑
硒
硕
硝
硤
硨
硫
硬
确
硯
硲
硼
碀
碁
碆
碇
碉
碌
碍
碎
碏
碑
碓
碕
碗
碘
碚
碛
碞
碟
碢
碣
碧
碩
碪
碭
碰
碱
碲
碳
碴
碸
確
碻
碼
碾
磁
磄
磅
磈
磊
磋
磎
磐
磑
磔
磕
磗
磘
磚
磝
磞
磡
磧
磨
磪
磬
磯
磲
磴
磵
磷
磺
磻
磾
磿
礀
礁
礄
礎
礐
礑
礒
礓
礙
礡
礦
礩
礪
礫
礬
礮
礱
礳
礴
礶
礸
示
礻
礼
礽
社
祀
祁
祂
祆
祇
祈
祉
祊
祎
祏
祐
祓
祔
祕
祖
祗
祘
祙
祚
祛
祜
祝
神
祟
祠
祡
祢
祥
祧
票
祩
祫
祭
祯
祳
祷
祸
祹
祺
祼
祿
禀
禁
禄
禅
禇
禊
禋
禍
禎
福
禑
禔
禕
禖
禚
禛
禟
禠
禡
禢
禤
禦
禧
禩
禪
禮
禰
禱
禳
禵
禶
禹
禺
离
禽
禾
禿
秀
私
秃
秆
秈
秉
秊
秋
种
秏
科
秒
秕
秘
租
秣
秤
秦
秧
秩
秪
秬
秭
积
称
秶
秸
移
秽
稀
稃
稅
稈
稉
程
稍
税
稔
稗
稙
稚
稛
稜
稞
稟
稠
稡
稣
稧
種
稯
稱
稲
稳
稷
稹
稻
稼
稽
稿
穀
穂
穆
穉
穌
積
穎
穏
穐
穑
穗
穚
穜
穠
穡
穢
穣
穩
穫
穰
穴
究
穷
穹
空
穽
穾
穿
突
窂
窃
窄
窆
窈
窋
窍
窑
窒
窓
窕
窖
窗
窘
窜
窝
窟
窠
窣
窥
窦
窨
窩
窪
窮
窯
窰
窳
窴
窶
窸
窺
窻
窿
竂
竃
竄
竅
竇
竈
竉
竊
立
竑
竒
竖
竘
站
竜
竝
竞
竟
章
竣
童
竦
竧
竩
竪
竫
竭
端
竴
競
竸
竹
竺
竽
竿
笁
笃
笄
笅
笆
笈
笊
笋
笌
笏
笑
笒
笔
笘
笙
笛
笞
笠
笢
笥
符
笨
笪
笫
第
笭
笮
笯
笱
笳
笵
笹
笺
笼
筅
筆
筈
等
筊
筋
筌
筍
筏
筐
筑
筒
答
策
筛
筝
筠
筥
筦
筧
筫
筬
筮
筯
筰
筱
筲
筳
筴
筵
筷
筹
筺
签
简
箂
箅
箆
箇
箋
箍
箎
箏
箐
箒
箓
箔
箕
箖
算
箘
箙
箚
箜
箝
箟
管
箢
箧
箩
箪
箫
箬
箭
箱
箴
箸
箹
節
篁
範
篆
篇
築
篋
篌
篏
篓
篕
篙
篛
篜
篝
篠
篡
篣
篤
篥
篦
篩
篪
篭
篮
篱
篳
篶
篷
篸
篾
簀
簁
簃
簇
簊
簋
簌
簍
簑
簒
簓
簔
簕
簗
簞
簟
簠
簡
簣
簥
簧
簪
簫
簱
簷
簸
簺
簽
簾
簿
籀
籁
籃
籌
籍
籏
籐
籓
籔
籖
籙
籚
籟
籠
籣
籤
籥
籬
籮
籲
米
籵
类
籼
籽
籾
粁
粂
粃
粄
粉
粋
粍
粑
粒
粕
粗
粘
粛
粟
粢
粤
粥
粦
粧
粪
粫
粮
粱
粲
粳
粵
粹
粼
粽
精
粿
糀
糅
糉
糊
糍
糎
糒
糓
糕
糖
糗
糙
糜
糝
糞
糟
糠
糢
糥
糧
糨
糬
糭
糯
糰
糲
糴
糶
糷
糸
糹
糺
系
糼
糾
紀
紂
約
紅
紆
紇
紈
紉
紊
紋
納
紏
紐
紒
紓
純
紕
紗
紘
紙
級
紛
紜
紝
紞
素
紡
索
紥
紧
紫
紬
紮
累
細
紱
紲
紳
紵
紹
紺
紿
絀
絁
終
絃
組
絅
絆
絇
絋
経
絎
結
絓
絕
絖
絛
絜
絝
絞
絡
絢
絣
給
絨
絪
絮
絰
統
絲
絳
絵
絶
絹
絺
絻
絽
絿
綀
綁
綃
綈
綉
綎
綏
綑
經
綖
継
続
綜
綝
綞
綟
綠
綢
綣
綦
綧
綪
綫
綬
維
綮
綯
綰
綱
網
綳
綴
綵
綷
綸
綹
綺
綻
綽
綾
綿
緁
緃
緄
緇
緈
緉
緊
緋
緍
総
緑
緒
緖
緗
緘
緙
線
緜
緝
緞
締
緡
緣
緦
編
緩
緬
緯
緱
緲
練
緹
緻
縁
縂
縄
縅
縈
縉
縊
縋
縐
縑
縒
縕
縛
縝
縞
縟
縠
縡
縢
縣
縦
縫
縭
縮
縯
縰
縱
縲
縳
縴
縵
縶
縷
縹
縺
縻
總
績
繁
繃
繄
繆
繇
繊
繋
繍
繑
繒
織
繕
繖
繙
繚
繝
繞
繡
繧
繨
繩
繪
繫
繭
繮
繯
繰
繳
繸
繹
繻
繼
繽
繾
纁
纂
纇
纈
纉
續
纍
纎
纏
纐
纒
纓
纔
纖
纘
纙
纛
纜
纠
红
纣
纤
纥
约
级
纨
纪
纫
纬
纭
纮
纯
纱
纲
纳
纵
纶
纷
纸
纹
纺
纽
纾
线
绀
练
组
绅
细
织
终
绊
绍
绎
经
绑
绒
结
绔
绕
绘
给
绚
绛
络
绝
绞
统
绢
绣
绥
绦
继
绩
绪
绫
续
绮
绯
绰
绳
维
绵
绶
绷
绸
综
绽
绾
绿
缀
缄
缅
缆
缇
缉
缎
缐
缓
缔
缕
编
缗
缘
缙
缚
缜
缝
缟
缠
缢
缤
缥
缦
缨
缩
缪
缬
缭
缮
缴
缶
缷
缸
缺
缽
缾
罂
罃
罄
罅
罇
罈
罉
罊
罌
罍
罎
罐
网
罒
罔
罕
罗
罘
罚
罝
罟
罠
罡
罢
罣
罧
罨
罩
罪
罫
置
罰
署
罵
罷
罸
罹
罽
罾
羁
羂
羅
羆
羇
羈
羊
羋
羌
美
羓
羔
羕
羗
羚
羝
羞
羟
羡
羣
群
羥
羧
羨
義
羮
羯
羰
羱
羲
羶
羸
羹
羽
羿
翀
翁
翃
翅
翆
翊
翋
翌
翎
翏
習
翔
翕
翘
翛
翜
翟
翠
翡
翥
翦
翩
翫
翬
翮
翰
翱
翳
翹
翺
翻
翼
翽
耀
老
考
耄
者
耆
耉
耋
而
耍
耐
耑
耒
耕
耖
耗
耘
耙
耜
耤
耦
耨
耳
耶
耷
耸
耻
耽
耿
聂
聃
聆
聊
聋
职
聒
联
聖
聘
聚
聞
聟
聡
聨
聪
聯
聰
聱
聲
聳
聴
聵
聶
職
聼
聽
聾
聿
肃
肄
肅
肆
肇
肉
肋
肌
肏
肓
肕
肖
肘
肚
肛
肜
肝
肟
肠
股
肢
肤
肥
肧
肩
肪
肫
肭
肮
肯
肱
育
肴
肶
肸
肹
肺
肼
肽
肾
肿
胀
胁
胂
胃
胄
胆
背
胍
胎
胖
胗
胙
胚
胛
胜
胝
胞
胡
胤
胥
胦
胧
胪
胫
胬
胭
胯
胰
胱
胳
胴
胶
胸
胺
胼
能
脂
脅
脆
脇
脈
脉
脊
脍
脏
脐
脑
脓
脕
脖
脗
脘
脚
脛
脞
脢
脣
脤
脥
脧
脩
脫
脯
脱
脲
脳
脷
脸
脹
脾
腄
腆
腈
腊
腋
腌
腍
腎
腐
腑
腓
腔
腕
腙
腚
腟
腠
腥
腦
腧
腩
腫
腬
腭
腮
腯
腰
腱
腳
腴
腸
腹
腺
腻
腼
腾
腿
膀
膂
膃
膄
膅
膇
膈
膉
膊
膏
膑
膓
膕
膘
膚
膛
膜
膝
膞
膠
膣
膥
膦
膧
膨
膩
膱
膳
膵
膶
膸
膺
膻
膽
膾
膿
臀
臂
臃
臆
臈
臉
臊
臍
臏
臐
臑
臓
臘
臙
臚
臟
臠
臣
臥
臧
臨
自
臬
臭
臯
至
致
臺
臻
臼
臾
舀
舁
舂
舄
舅
舆
與
興
舉
舊
舌
舍
舎
舐
舑
舒
舔
舖
舗
舘
舙
舛
舜
舞
舟
舢
舨
舩
航
舫
般
舯
舰
舱
舳
舵
舶
舷
舸
船
舺
舾
艀
艇
艉
艋
艏
艘
艙
艜
艟
艤
艦
艨
艪
艫
艮
良
艰
艱
色
艳
艶
艷
艸
艹
艺
艼
艽
艾
节
芃
芈
芉
芊
芋
芍
芎
芐
芑
芒
芓
芗
芘
芙
芚
芛
芜
芝
芟
芡
芣
芥
芦
芧
芨
芩
芪
芫
芬
芭
芮
芯
花
芳
芴
芵
芶
芷
芸
芹
芺
芻
芼
芽
芾
芿
苄
苅
苇
苋
苍
苎
苏
苑
苒
苓
苔
苕
苖
苗
苙
苛
苜
苞
苟
苡
苣
苤
若
苦
苧
苩
苫
苯
英
苳
苴
苶
苷
苹
苺
苻
苼
苾
苿
茀
茁
茂
范
茄
茅
茆
茈
茉
茋
茌
茍
茎
茔
茖
茗
茘
茚
茛
茜
茣
茧
茨
茫
茬
茭
茯
茱
茲
茳
茴
茵
茶
茸
茹
茼
荀
荂
荃
荅
荆
荇
草
荊
荌
荎
荏
荐
荑
荒
荔
荕
荖
荗
荘
荚
荞
荟
荠
荡
荣
荤
荥
荧
荨
荪
荫
药
荳
荵
荷
荸
荻
荼
荽
莃
莅
莆
莇
莉
莊
莎
莒
莓
莕
莖
莘
莙
莚
莛
莜
莞
莟
莠
莢
莤
莧
莨
莩
莪
莫
莱
莲
莳
莴
莵
获
莹
莺
莽
莿
菀
菁
菂
菅
菇
菈
菉
菊
菌
菏
菑
菓
菔
菕
菖
菘
菜
菝
菟
菠
菡
菩
菪
菫
華
菰
菱
菲
菴
菸
菻
菽
萁
萃
萄
萆
萇
萉
萊
萋
萌
萍
萎
萏
萘
萛
萜
萝
萠
萡
萢
萣
萤
营
萦
萧
萨
萩
萫
萬
萭
萱
萵
萸
萼
落
葆
葉
葎
葑
葒
著
葙
葚
葛
葜
葡
葢
董
葦
葩
葫
葬
葭
葯
葰
葱
葳
葵
葶
葷
葸
葺
蒂
蒄
蒋
蒍
蒐
蒒
蒓
蒔
蒗
蒙
蒜
蒝
蒞
蒟
蒡
蒨
蒭
蒯
蒱
蒲
蒴
蒸
蒹
蒺
蒻
蒼
蒽
蒿
蓀
蓁
蓂
蓄
蓆
蓉
蓊
蓋
蓍
蓎
蓐
蓑
蓓
蓖
蓙
蓚
蓜
蓝
蓟
蓨
蓬
蓮
蓯
蓳
蓴
蓺
蓼
蓽
蓿
蔀
蔑
蔓
蔔
蔕
蔗
蔘
蔚
蔞
蔟
蔡
蔣
蔥
蔦
蔫
蔬
蔭
蔴
蔵
蔷
蔺
蔻
蔼
蔽
蔿
蕀
蕁
蕂
蕃
蕅
蕆
蕈
蕉
蕊
蕎
蕓
蕖
蕗
蕘
蕙
蕚
蕞
蕡
蕣
蕤
蕨
蕩
蕪
蕫
蕭
蕯
蕲
蕴
蕷
蕸
蕹
蕺
蕻
蕾
薀
薁
薄
薆
薇
薈
薊
薌
薏
薑
薔
薕
薗
薘
薙
薛
薜
薟
薤
薦
薨
薩
薪
薫
薬
薭
薮
薯
薰
薲
薳
薷
薹
薺
薾
藁
藉
藍
藎
藏
藐
藓
藔
藕
藜
藝
藤
藥
藦
藨
藩
藪
藴
藷
藹
藺
藻
藿
蘂
蘄
蘅
蘆
蘇
蘊
蘋
蘐
蘑
蘓
蘖
蘗
蘚
蘢
蘧
蘩
蘭
蘸
蘺
蘼
蘿
虊
虍
虎
虏
虐
虑
虓
虔
處
虚
虛
虜
虞
號
虢
虧
虨
虫
虬
虯
虱
虵
虸
虹
虺
虻
虽
虾
蚀
蚁
蚂
蚊
蚋
蚌
蚓
蚕
蚖
蚚
蚛
蚜
蚝
蚡
蚣
蚤
蚧
蚩
蚪
蚬
蚯
蚰
蚱
蚴
蚵
蚶
蚹
蚺
蛀
蛂
蛄
蛆
蛇
蛉
蛊
蛋
蛍
蛎
蛏
蛐
蛑
蛓
蛔
蛘
蛙
蛛
蛞
蛟
蛤
蛩
蛭
蛮
蛯
蛰
蛱
蛳
蛷
蛸
蛹
蛺
蛻
蛽
蛾
蜀
蜁
蜂
蜃
蜄
蜆
蜇
蜈
蜉
蜊
蜍
蜑
蜒
蜓
蜕
蜗
蜘
蜚
蜜
蜞
蜡
蜢
蜣
蜤
蜥
蜩
蜮
蜱
蜴
蜷
蜻
蜿
蝇
蝉
蝋
蝌
蝎
蝓
蝕
蝗
蝘
蝙
蝟
蝠
蝣
蝥
蝦
蝨
蝪
蝮
蝰
蝴
蝶
蝸
蝻
蝽
蝾
蝿
螂
螃
螄
螅
螆
螈
螋
融
螎
螞
螟
螢
螣
螨
螫
螭
螯
螳
螹
螺
螻
螽
蟀
蟃
蟄
蟆
蟇
蟈
蟊
蟋
蟌
蟎
蟑
蟒
蟛
蟜
蟠
蟣
蟧
蟬
蟮
蟯
蟲
蟳
蟶
蟷
蟹
蟻
蟾
蠂
蠃
蠄
蠅
蠆
蠊
蠋
蠍
蠏
蠐
蠑
蠓
蠔
蠕
蠖
蠙
蠟
蠡
蠢
蠣
蠧
蠬
蠱
蠲
蠵
蠶
蠹
蠻
蠼
血
衄
衅
衆
衊
行
衍
衎
衑
衒
術
衔
衕
衖
街
衙
衚
衛
衜
衝
衞
衡
衢
衣
衤
补
表
衩
衪
衫
衬
衭
衮
衰
衱
衲
衵
衷
衹
衽
衾
衿
袁
袂
袄
袅
袈
袋
袍
袐
袒
袓
袖
袗
袙
袚
袛
袜
袞
袢
袤
袪
被
袭
袮
袰
袱
袴
袷
袿
裀
裁
裂
裃
裄
装
裆
裇
裊
裎
裏
裒
裔
裕
裖
裘
裙
補
裝
裟
裡
裤
裨
裱
裲
裳
裴
裵
裶
裸
裹
製
裾
褀
褂
褄
複
褊
褌
褐
褒
褓
褔
褘
褙
褚
褛
褞
褟
褡
褢
褣
褥
褦
褧
褪
褫
褰
褲
褶
褸
褹
褻
襁
襃
襄
襌
襍
襑
襖
襙
襞
襟
襠
襤
襦
襪
襬
襯
襲
襴
襷
襾
西
要
覂
覃
覆
覇
覈
覊
見
覌
規
覑
覓
視
覗
覘
覚
覡
覤
覥
覦
覧
覩
親
覬
覯
覲
観
覷
覺
覽
覿
觀
见
观
规
觅
视
觇
览
觉
觊
觎
觐
觑
角
觔
觚
觜
觝
解
觥
触
觧
觳
觴
觸
觿
言
訁
訂
訃
訇
計
訉
訊
訌
討
訏
訐
訓
訔
訕
訖
託
記
訛
訝
訟
訢
訣
訥
訧
訪
設
許
訳
訴
訶
診
註
証
訾
詀
詁
詃
詆
詈
詎
詏
詐
詒
詔
評
詖
詗
詘
詛
詝
詞
詠
詡
詢
詣
試
詧
詩
詫
詬
詭
詮
詰
話
該
詳
詵
詹
詻
詼
詿
誁
誂
誄
誅
誆
誇
誉
誊
誌
認
誐
誑
誒
誓
誔
誕
誘
誚
語
誠
誡
誣
誤
誥
誦
誧
誨
說
説
読
誰
課
誴
誹
誼
誾
調
諂
諄
談
諉
請
諌
諍
諎
諏
諒
論
諗
諚
諛
諜
諝
諟
諠
諡
諢
諤
諦
諧
諪
諫
諭
諮
諱
諲
諳
諴
諶
諷
諸
諺
諼
諾
諿
謀
謁
謂
謄
謅
謇
謊
謌
謍
謎
謏
謐
謔
謖
謗
謙
謚
講
謜
謝
謠
謡
謢
謦
謨
謩
謫
謬
謮
謳
謹
謾
譁
證
譌
譎
譏
譒
譓
譔
譖
識
譙
譚
譜
譞
譟
譠
警
譪
譫
譬
譭
譯
議
譲
譴
護
譽
讀
讃
讉
變
讌
讎
讐
讒
讓
讖
讙
讚
讜
讞
讠
计
订
讣
认
讥
讧
讨
让
讫
讬
训
议
讯
记
讲
讳
讴
讵
讶
讷
许
讹
论
讼
讽
设
访
诀
证
诂
诃
评
诅
识
诈
诉
诊
诋
词
诏
译
诒
试
诗
诘
诙
诚
诛
诜
话
诞
诟
诠
诡
询
诣
诤
该
详
诩
诫
诬
语
误
诰
诱
诲
诳
说
诵
诶
请
诸
诹
诺
读
诽
课
谁
谂
调
谄
谅
谆
谈
谊
谋
谌
谍
谎
谏
谐
谑
谒
谓
谔
谕
谗
谘
谙
谚
谛
谜
谟
谢
谣
谤
谥
谦
谧
谨
谩
谪
谬
谭
谮
谯
谱
谴
谶
谷
谺
谿
豁
豆
豇
豈
豉
豊
豋
豌
豎
豐
豔
豕
豚
豝
象
豢
豨
豪
豫
豬
豳
豸
豹
豺
貂
貅
貉
貊
貌
貍
貎
貓
貔
貘
貝
貞
負
財
貢
貧
貨
販
貪
貫
責
貭
貮
貯
貰
貲
貳
貴
貶
買
貸
貺
費
貼
貽
貿
賀
賁
賂
賃
賄
賅
資
賈
賊
賎
賑
賒
賓
賔
賚
賛
賜
賞
賠
賡
賢
賣
賤
賦
賨
質
賫
賬
賭
賴
賸
賺
賻
購
賽
賾
賿
贀
贂
贄
贅
贇
贈
贊
贋
贌
贍
贏
贐
贒
贓
贔
贖
贗
贘
贛
贜
贝
贞
负
贡
财
责
贤
败
账
货
质
贩
贪
贫
贬
购
贮
贯
贰
贱
贲
贴
贵
贷
贸
费
贺
贻
贼
贽
贾
贿
赁
赂
赃
资
赈
赉
赋
赌
赍
赎
赏
赐
赓
赔
赖
赘
赚
赛
赝
赞
赟
赠
赡
赢
赣
赤
赦
赧
赫
赭
走
赲
赳
赴
赵
赶
起
赻
赽
赿
趁
趄
超
趆
越
趋
趐
趕
趙
趟
趣
趨
足
趴
趵
趷
趸
趺
趼
趾
跂
跃
跅
跆
跋
跌
跎
跏
跑
跖
跗
跚
跛
距
跟
跡
跣
跤
跨
跩
跪
跫
路
跳
践
跷
跺
跻
踅
踉
踊
踎
踏
踐
踝
踞
踟
踢
踨
踩
踪
踫
踭
踮
踰
踱
踴
踵
踶
踹
踼
踽
蹀
蹁
蹂
蹄
蹅
蹇
蹈
蹉
蹊
蹋
蹌
蹍
蹓
蹕
蹙
蹚
蹝
蹟
蹠
蹣
蹤
蹦
蹧
蹩
蹬
蹭
蹱
蹲
蹴
蹶
蹺
蹻
蹼
蹾
躁
躂
躄
躅
躇
躉
躊
躋
躍
躏
躑
躒
躓
躕
躙
躚
躝
躡
躥
躦
躪
身
躬
躭
躯
躰
躱
躲
躹
躺
躾
軀
軆
車
軋
軌
軍
軏
軑
軒
軔
軕
軚
軛
軟
転
軨
軫
軰
軸
軹
軻
軼
軽
軾
較
輅
載
輊
輋
輌
輒
輓
輔
輕
輙
輛
輜
輝
輞
輟
輥
輦
輩
輪
輭
輯
輳
輶
輸
輻
輾
輿
轁
轂
轄
轅
轆
轇
轉
轍
轎
轔
轕
轘
轝
轟
轡
轢
轤
车
轧
轨
轩
转
轭
轮
软
轰
轲
轴
轶
轸
轻
轼
载
轿
较
辄
辅
辆
辇
辈
辉
辍
辎
辐
辑
输
辕
辖
辗
辘
辙
辛
辜
辞
辟
辡
辢
辣
辦
辧
辨
辩
辫
辭
辮
辯
辰
辱
農
辳
辵
辶
辷
边
辺
辻
込
辽
达
辿
迁
迂
迄
迅
迆
过
迈
迎
运
近
迓
返
还
这
进
远
违
连
迟
迢
迤
迥
迦
迨
迩
迪
迫
迭
迯
述
迴
迵
迷
迸
迹
迺
追
迾
退
送
适
逃
逄
逅
逆
逈
选
逊
逋
逌
逍
透
逐
逑
递
逓
途
逕
逖
逗
這
通
逛
逝
逞
速
造
逡
逢
連
逭
逮
逯
週
進
逳
逵
逶
逸
逹
逺
逻
逼
逾
遁
遂
遄
遅
遇
遊
運
遍
過
遏
遐
遑
遒
道
達
違
遗
遘
遙
遛
遜
遝
遞
遟
遠
遡
遢
遣
遥
遨
適
遭
遮
遯
遲
遴
遵
遶
遷
選
遹
遺
遼
遽
避
邀
邁
邂
邃
還
邇
邈
邉
邊
邋
邌
邏
邐
邑
邓
邕
邗
邙
邛
邝
邠
邡
邢
那
邦
邨
邪
邬
邮
邯
邰
邱
邲
邳
邴
邵
邶
邸
邹
邺
邻
邽
邾
邿
郁
郃
郄
郅
郇
郊
郎
郑
郔
郕
郗
郛
郜
郝
郞
郟
郡
郢
郤
郦
郧
部
郩
郪
郫
郭
郯
郳
郴
郵
郷
郸
都
郾
郿
鄀
鄂
鄃
鄄
鄅
鄆
鄉
鄒
鄔
鄕
鄖
鄗
鄘
鄙
鄚
鄜
鄞
鄠
鄢
鄣
鄧
鄩
鄫
鄭
鄮
鄯
鄰
鄱
鄲
鄴
鄶
鄺
酃
酆
酇
酈
酉
酊
酋
酌
配
酎
酐
酒
酔
酕
酗
酘
酙
酚
酛
酝
酞
酢
酣
酤
酥
酦
酩
酪
酫
酬
酮
酯
酰
酱
酲
酵
酶
酷
酸
酹
酺
酿
醂
醃
醇
醉
醋
醌
醍
醎
醐
醒
醖
醗
醚
醛
醜
醞
醡
醢
醣
醤
醩
醪
醫
醬
醮
醯
醱
醲
醴
醵
醶
醸
醺
釀
釁
釆
采
釈
釉
释
釋
里
重
野
量
釐
金
釒
釔
釕
釗
釘
釙
釜
針
釟
釡
釣
釤
釦
釧
釨
釩
釬
釭
釴
釵
釷
釸
釹
釼
釿
鈀
鈁
鈄
鈇
鈈
鈉
鈊
鈍
鈎
鈐
鈑
鈔
鈕
鈜
鈞
鈡
鈣
鈦
鈧
鈩
鈪
鈬
鈮
鈰
鈳
鈴
鈷
鈸
鈹
鈺
鈽
鈾
鈿
鉀
鉃
鉄
鉅
鉆
鉇
鉈
鉉
鉋
鉍
鉎
鉏
鉐
鉑
鉗
鉚
鉛
鉞
鉢
鉤
鉦
鉧
鉨
鉬
鉭
鉱
鉲
鉴
鉶
鉷
鉸
鉻
鉼
鉾
鉿
銀
銃
銅
銈
銍
銑
銓
銕
銖
銘
銚
銛
銜
銠
銣
銥
銦
銨
銫
銬
銭
銮
銲
銳
銶
銷
銹
銻
銼
銾
鋁
鋃
鋅
鋆
鋇
鋈
鋉
鋌
鋏
鋐
鋒
鋕
鋠
鋡
鋤
鋥
鋦
鋨
鋩
鋪
鋭
鋮
鋯
鋰
鋲
鋳
鋸
鋹
鋺
鋼
錀
錂
錄
錆
錈
錎
錏
錐
錒
錕
錘
錙
錚
錛
錝
錞
錟
錠
錡
錢
錣
錤
錦
錧
錨
錩
錪
錫
錬
錭
錮
錯
録
錳
錵
錶
錸
錺
鍀
鍇
鍈
鍊
鍋
鍍
鍏
鍑
鍔
鍘
鍙
鍚
鍛
鍜
鍝
鍞
鍟
鍠
鍡
鍥
鍩
鍪
鍬
鍮
鍰
鍱
鍵
鍶
鍺
鍼
鍾
鎂
鎅
鎊
鎌
鎏
鎓
鎔
鎖
鎗
鎘
鎚
鎛
鎝
鎡
鎢
鎣
鎧
鎩
鎬
鎭
鎮
鎯
鎰
鎳
鎵
鎷
鎹
鎺
鏃
鏄
鏇
鏈
鏊
鏌
鏍
鏐
鏑
鏖
鏗
鏘
鏜
鏝
鏞
鏟
鏠
鏡
鏢
鏤
鏨
鏱
鏵
鏷
鏸
鏹
鏻
鏽
鐃
鐄
鐇
鐏
鐐
鐔
鐘
鐙
鐚
鐠
鐡
鐥
鐦
鐧
鐨
鐫
鐮
鐲
鐳
鐵
鐶
鐸
鐺
鐽
鐿
鑀
鑁
鑄
鑅
鑊
鑌
鑑
鑒
鑓
鑚
鑛
鑞
鑠
鑢
鑣
鑪
鑫
鑭
鑯
鑰
鑲
鑴
鑵
鑷
鑼
鑽
鑾
鑿
钅
钇
针
钉
钊
钋
钌
钍
钏
钒
钓
钕
钗
钙
钚
钛
钜
钝
钞
钟
钠
钡
钢
钣
钤
钥
钦
钧
钨
钩
钪
钬
钮
钯
钰
钱
钳
钴
钵
钷
钹
钺
钻
钼
钽
钾
钿
铀
铁
铂
铃
铅
铆
铈
铉
铊
铋
铌
铍
铎
铐
铑
铕
铛
铜
铝
铟
铠
铢
铣
铤
铨
铪
铫
铬
铭
铮
铯
铰
铱
铲
铳
铵
银
铷
铸
铺
铼
铽
链
铿
销
锁
锂
锄
锅
锆
锇
锈
锉
锋
锌
锏
锐
锑
锕
锗
错
锚
锜
锝
锟
锡
锢
锣
锤
锥
锦
锭
键
锯
锰
锵
锶
锷
锹
锺
锻
镀
镁
镂
镇
镉
镊
镌
镍
镐
镑
镒
镓
镕
镖
镛
镜
镝
镥
镧
镨
镬
镭
镯
镰
镱
镳
镶
長
长
門
閂
閃
閆
閇
閈
閉
開
閎
閏
閑
閒
間
閔
閖
閘
閙
閞
閟
閠
閡
関
閣
閤
閥
閦
閧
閨
閩
閪
閫
閬
閭
閰
閱
閲
閳
閶
閹
閻
閼
閾
閿
闆
闇
闈
闊
闋
闌
闍
闐
闓
闔
闕
闖
闗
闘
闚
關
闞
闡
闢
闥
门
闩
闪
闫
闭
问
闯
闰
闱
闲
间
闵
闷
闸
闹
闺
闻
闼
闽
闾
闿
阀
阁
阂
阅
阇
阈
阉
阎
阏
阐
阑
阔
阖
阗
阙
阚
阜
阝
队
阡
阨
阪
阬
阮
阯
阱
防
阳
阴
阵
阶
阻
阼
阿
陀
陁
陂
陃
附
际
陆
陇
陈
陉
陋
陌
降
陎
陏
限
陑
陔
陕
陘
陛
陜
陝
陞
陟
陡
院
陣
除
陥
陨
险
陪
陫
陬
陰
陲
陳
陴
陵
陶
陷
陸
険
陽
隂
隃
隄
隅
隆
隈
隊
隋
隍
階
随
隐
隔
隕
隗
隘
隙
際
障
隠
隡
隣
隧
隨
險
隰
隱
隲
隳
隴
隶
隷
隸
隹
隺
隻
隼
隽
难
雀
雁
雄
雅
集
雇
雉
雋
雌
雍
雎
雏
雑
雒
雕
雖
雙
雛
雜
雞
雠
離
難
雨
雩
雪
雫
雯
雰
雲
雳
零
雷
雹
電
雾
雿
需
霁
霄
霅
霆
震
霈
霉
霊
霍
霎
霏
霑
霓
霖
霙
霜
霞
霤
霧
霨
霫
霭
霰
露
霸
霹
霽
霾
靂
靄
靈
靉
靍
靏
靑
青
靓
靖
靘
静
靚
靛
靜
非
靠
靡
面
靦
靨
革
靫
靬
靭
靱
靳
靴
靶
靺
靼
鞄
鞅
鞆
鞋
鞍
鞏
鞑
鞘
鞜
鞞
鞠
鞣
鞥
鞦
鞨
鞫
鞬
鞭
鞮
鞴
韁
韃
韆
韈
韋
韌
韓
韙
韜
韞
韡
韦
韧
韩
韪
韫
韬
韭
韮
韱
音
韵
韶
韻
韾
響
頁
頂
頃
頄
項
順
頇
須
頊
頌
頎
預
頑
頒
頓
頔
頖
頗
領
頚
頜
頞
頟
頠
頡
頣
頤
頦
頪
頫
頬
頭
頰
頲
頴
頵
頷
頸
頹
頻
頼
頽
顅
顆
題
額
顎
顏
顒
顓
顔
顕
顗
願
顙
顚
顛
類
顢
顥
顧
顫
顬
顯
顰
顱
顳
顴
页
顶
顷
项
顺
须
顼
顽
顾
顿
颁
颂
预
颅
领
颇
颈
颉
颊
颌
颍
颐
频
颓
颔
颖
颗
题
颙
颚
颛
颜
额
颞
颠
颢
颤
颧
風
颪
颯
颱
颳
颶
颷
颸
颺
颼
飁
飃
飄
飆
飇
飈
飊
风
飒
飓
飘
飙
飚
飛
飜
飞
食
飠
飡
飢
飧
飨
飩
飪
飫
飬
飭
飮
飯
飱
飲
飴
飼
飽
飾
餃
餅
餈
餉
養
餌
餐
餑
餒
餓
餔
餘
餚
餛
餜
餝
餞
餠
餡
餣
館
餬
餮
餱
餲
餵
餸
餺
餽
餾
餿
饀
饂
饃
饅
饈
饉
饋
饌
饍
饎
饑
饒
饔
饕
饗
饜
饞
饟
饡
饥
饪
饬
饭
饮
饯
饰
饱
饲
饴
饵
饶
饷
饹
饺
饼
饿
馀
馅
馆
馇
馈
馋
馍
馏
馒
首
馗
馘
香
馥
馨
馫
馬
馭
馮
馱
馳
馴
馹
馼
駁
駃
駄
駅
駆
駈
駉
駌
駐
駑
駒
駔
駕
駘
駙
駛
駝
駟
駡
駢
駭
駮
駰
駱
駸
駹
駿
騁
騂
騄
騅
騎
騏
騐
騑
騒
験
騖
騙
騜
騤
騨
騫
騭
騮
騰
騶
騷
騸
騾
驀
驁
驂
驃
驄
驅
驊
驌
驍
驎
驒
驕
驗
驘
驚
驛
驟
驢
驣
驤
驥
驩
驪
驫
马
驭
驮
驯
驰
驱
驳
驴
驶
驷
驸
驹
驻
驼
驾
驿
骁
骂
骄
骅
骆
骇
骈
骊
骋
验
骏
骐
骑
骗
骘
骚
骞
骠
骡
骤
骥
骧
骨
骯
骰
骱
骴
骶
骷
骸
骹
骺
骼
骾
髀
髁
髂
髄
髅
髆
髋
髎
髏
髑
髒
髓
體
髕
髖
髗
高
髙
髞
髟
髠
髡
髢
髣
髥
髦
髪
髫
髭
髮
髯
髱
髲
髴
髷
髹
髻
鬃
鬆
鬈
鬍
鬐
鬓
鬘
鬚
鬟
鬢
鬣
鬥
鬧
鬨
鬩
鬪
鬬
鬭
鬮
鬯
鬰
鬱
鬲
鬻
鬼
魁
魂
魃
魄
魅
魇
魈
魉
魋
魍
魎
魏
魑
魔
魕
魘
魚
魟
魠
魢
魣
魨
魩
魭
魮
魯
魴
魷
魽
魾
鮀
鮁
鮃
鮄
鮈
鮊
鮋
鮍
鮎
鮐
鮑
鮒
鮓
鮗
鮟
鮠
鮡
鮦
鮨
鮪
鮫
鮭
鮮
鮰
鮹
鮻
鯀
鯁
鯆
鯇
鯉
鯊
鯏
鯒
鯓
鯔
鯕
鯖
鯙
鯛
鯝
鯡
鯢
鯣
鯤
鯥
鯧
鯨
鯪
鯭
鯰
鯱
鯵
鯷
鯹
鯺
鯻
鯽
鯿
鰁
鰂
鰃
鰆
鰈
鰉
鰊
鰋
鰌
鰍
鰏
鰐
鰒
鰓
鰕
鰜
鰝
鰟
鰠
鰡
鰣
鰤
鰥
鰦
鰧
鰨
鰩
鰭
鰮
鰯
鰰
鰱
鰲
鰳
鰵
鰶
鰹
鰺
鰻
鰽
鰾
鱀
鱂
鱆
鱇
鱈
鱉
鱊
鱏
鱒
鱓
鱔
鱖
鱗
鱘
鱚
鱝
鱟
鱠
鱣
鱥
鱧
鱨
鱭
鱯
鱲
鱵
鱶
鱷
鱸
鱺
鱻
鱼
鱿
鲀
鲁
鲆
鲇
鲈
鲉
鲍
鲑
鲔
鲛
鲜
鲟
鲣
鲤
鲨
鲩
鲫
鲭
鲮
鲱
鲵
鲶
鲷
鲸
鲹
鲽
鳀
鳃
鳄
鳅
鳉
鳌
鳍
鳐
鳕
鳖
鳗
鳚
鳝
鳞
鳟
鳥
鳧
鳩
鳮
鳯
鳰
鳲
鳳
鳴
鳶
鳼
鳽
鳾
鴃
鴆
鴇
鴈
鴉
鴌
鴎
鴐
鴒
鴕
鴗
鴛
鴝
鴞
鴟
鴣
鴦
鴨
鴫
鴬
鴯
鴴
鴷
鴻
鴿
鵂
鵄
鵆
鵎
鵐
鵑
鵙
鵜
鵝
鵞
鵟
鵠
鵡
鵤
鵪
鵬
鵯
鵰
鵲
鵷
鵺
鵼
鵾
鶇
鶉
鶊
鶏
鶓
鶘
鶚
鶡
鶢
鶥
鶩
鶫
鶯
鶲
鶴
鶵
鶸
鶹
鶺
鶻
鶼
鶿
鷀
鷂
鷄
鷈
鷉
鷓
鷗
鷙
鷚
鷟
鷥
鷦
鷯
鷲
鷴
鷸
鷹
鷺
鷽
鷿
鸁
鸊
鸌
鸕
鸚
鸛
鸝
鸞
鸟
鸠
鸡
鸢
鸣
鸥
鸦
鸫
鸬
鸭
鸮
鸯
鸰
鸲
鸳
鸵
鸷
鸻
鸽
鸾
鸿
鹀
鹂
鹃
鹅
鹈
鹉
鹊
鹌
鹎
鹏
鹑
鹕
鹗
鹘
鹚
鹛
鹞
鹟
鹡
鹤
鹦
鹨
鹩
鹫
鹬
鹭
鹮
鹰
鹱
鹳
鹵
鹸
鹹
鹼
鹽
鹿
麁
麂
麇
麈
麋
麐
麑
麒
麓
麖
麗
麛
麝
麟
麤
麥
麦
麩
麪
麫
麭
麯
麴
麵
麸
麹
麺
麻
麼
麽
麾
麿
黁
黃
黄
黇
黌
黍
黎
黏
黐
黑
黒
黔
默
黙
黚
黛
黜
黝
點
黟
黠
黥
黧
黨
黯
黴
黶
黷
黹
黺
黻
黼
黽
黿
鼂
鼆
鼇
鼈
鼉
鼎
鼐
鼓
鼔
鼙
鼠
鼡
鼩
鼬
鼯
鼱
鼴
鼷
鼹
鼻
鼾
齁
齊
齋
齌
齎
齏
齐
齒
齕
齙
齜
齟
齡
齢
齣
齦
齧
齪
齬
齮
齲
齶
齷
齿
龄
龈
龍
龎
龐
龑
龔
龕
龖
龗
龘
龙
龚
龛
龜
龝
龟
龠
龢
龬
鿕
ꂧ
ꇴ
ꈊ
ꈍ
ꈡ
ꈨ
ꉂ
ꐦ
꒦
꒪
꒫
꒰
꒱
꒳
ꙫ
꜀
꜂
꜄
꜆
ꜣ
ꜩ
꞉
ꞌ
﨑
﨟
ﬀ
ﬁ
ﬂ
ﬃ
﴾
﴿
ﷺ
︰
︱
︳
︴
︵
︶
︹
︺
︻
︿
﹀
﹁
﹃
﹊
﹍
﹏
﹐
﹑
﹒
﹔
﹕
﹖
﹗
﹙
﹚
﹛
﹜
﹝
﹞
﹟
﹠
﹡
﹣
﹤
﹥
﹪
ﻌ
ﻭ
！
＂
＃
＄
％
＆
＇
（
）
＊
＋
，
－
．
／
０
１
２
３
４
５
６
７
８
９
：
；
＜
＝
＞
？
＠
［
＼
］
＾
＿
｀
ａ
ｂ
ｃ
ｄ
ｅ
ｆ
ｇ
ｈ
ｉ
ｊ
ｋ
ｌ
ｍ
ｎ
ｏ
ｐ
ｑ
ｒ
ｓ
ｔ
ｕ
ｖ
ｗ
ｘ
ｙ
ｚ
｛
｜
｝
～
｟
｡
｢
｣
､
･
ｧ
ｨ
ｪ
ｬ
ｭ
ｮ
ｯ
ｰ
ｱ
ｲ
ｳ
ｴ
ｵ
ｶ
ｷ
ｸ
ｹ
ｺ
ｻ
ｼ
ｽ
ｾ
ｿ
ﾀ
ﾁ
ﾂ
ﾃ
ﾄ
ﾅ
ﾆ
ﾇ
ﾈ
ﾉ
ﾊ
ﾋ
ﾌ
ﾍ
ﾎ
ﾏ
ﾐ
ﾑ
ﾒ
ﾓ
ﾔ
ﾕ
ﾖ
ﾗ
ﾘ
ﾙ
ﾚ
ﾛ
ﾜ
ﾝ
ﾞ
ﾟ
￠
￡
￢
￣
￥
￦
￩
￫
￭
￼
𐌠
𝐄
𝐈
𝐋
𝐒
𝐚
𝐜
𝐞
𝐡
𝐢
𝐥
𝐧
𝐨
𝐫
𝐬
𝐭
𝒩
𝗮
𝗲
𝗶
𝗻
𝗼
𝗿
𝘀
𝘁
𝘢
𝘥
𝘦
𝘪
𝘭
𝘯
𝘰
𝘳
𝘴
𝘵
𝘶
𝛑
🀄
🃏
🅰
🅱
🅿
🆒
🆓
🆕
🆗
🆘
🆙
🇦
🇧
🇨
🇩
🇪
🇫
🇬
🇭
🇮
🇯
🇰
🇱
🇲
🇳
🇴
🇵
🇷
🇸
🇹
🇺
🇻
🇼
🇽
🇾
🇿
🈚
🈲
🈴
🈵
🈶
🈷
🈹
🉐
🉑
🌀
🌁
🌂
🌃
🌄
🌅
🌆
🌇
🌈
🌉
🌊
🌋
🌌
🌍
🌎
🌏
🌐
🌑
🌒
🌓
🌔
🌕
🌖
🌗
🌘
🌙
🌚
🌛
🌜
🌝
🌞
🌟
🌠
🌡
🌤
🌧
🌪
🌫
🌬
🌭
🌮
🌯
🌰
🌱
🌲
🌳
🌴
🌵
🌶
🌷
🌸
🌹
🌺
🌻
🌼
🌽
🌾
🌿
🍀
🍁
🍂
🍃
🍄
🍅
🍆
🍇
🍈
🍉
🍊
🍋
🍌
🍍
🍎
🍏
🍐
🍑
🍒
🍓
🍔
🍕
🍖
🍗
🍘
🍙
🍚
🍛
🍜
🍝
🍞
🍟
🍠
🍡
🍢
🍣
🍤
🍥
🍦
🍧
🍨
🍩
🍪
🍫
🍬
🍭
🍮
🍯
🍰
🍱
🍲
🍳
🍴
🍵
🍶
🍷
🍸
🍹
🍺
🍻
🍼
🍽
🍾
🍿
🎀
🎁
🎂
🎃
🎄
🎅
🎆
🎇
🎈
🎉
🎊
🎋
🎌
🎍
🎎
🎏
🎐
🎑
🎒
🎓
🎖
🎗
🎞
🎟
🎠
🎡
🎣
🎤
🎥
🎦
🎧
🎨
🎩
🎪
🎫
🎬
🎭
🎮
🎯
🎱
🎲
🎳
🎵
🎶
🎷
🎸
🎹
🎺
🎻
🎼
🎾
🏀
🏁
🏃
🏄
🏅
🏆
🏈
🏊
🏋
🏍
🏎
🏐
🏓
🏔
🏖
🏙
🏝
🏞
🏠
🏡
🏢
🏥
🏨
🏫
🏬
🏭
🏮
🏰
🏳
🏴
🏵
🏷
🏸
🏹
🏻
🏼
🏽
🏾
🏿
🐀
🐁
🐂
🐃
🐄
🐅
🐆
🐇
🐈
🐉
🐊
🐋
🐌
🐍
🐎
🐏
🐐
🐑
🐒
🐓
🐔
🐕
🐖
🐗
🐘
🐙
🐚
🐛
🐜
🐝
🐞
🐟
🐠
🐡
🐢
🐣
🐤
🐥
🐦
🐧
🐨
🐩
🐫
🐬
🐭
🐮
🐯
🐰
🐱
🐲
🐳
🐴
🐵
🐶
🐷
🐸
🐹
🐺
🐻
🐼
🐽
🐾
🐿
👀
👁
👂
👃
👄
👅
👆
👇
👈
👉
👊
👋
👌
👍
👎
👏
👐
👑
👒
👓
👔
👕
👖
👗
👘
👙
👚
👛
👜
👞
👟
👠
👣
👤
👥
👦
👧
👨
👩
👪
👫
👬
👭
👮
👯
👰
👱
👲
👳
👴
👵
👶
👷
👸
👹
👺
👻
👼
👽
👾
👿
💀
💁
💂
💃
💄
💅
💆
💇
💈
💉
💊
💋
💌
💍
💎
💏
💐
💑
💓
💔
💕
💖
💗
💘
💙
💚
💛
💜
💝
💞
💟
💠
💡
💢
💣
💤
💥
💦
💧
💨
💩
💪
💫
💬
💭
💮
💯
💰
💲
💳
💵
💸
💺
💻
💼
💽
📃
📄
📅
📆
📈
📉
📋
📌
📍
📎
📑
📒
📕
📖
📘
📚
📛
📜
📝
📞
📢
📣
📦
📩
📮
📰
📱
📲
📷
📸
📹
📺
📻
📽
🔄
🔅
🔆
🔈
🔉
🔊
🔋
🔌
🔍
🔎
🔑
🔒
🔓
🔔
🔖
🔗
🔘
🔙
🔚
🔛
🔜
🔝
🔞
🔟
🔥
🔧
🔨
🔪
🔫
🔬
🔮
🔯
🔰
🔱
🔲
🔴
🔵
🔶
🔷
🔸
🔹
🔺
🔻
🔼
🔽
🕊
🕐
🕑
🕒
🕓
🕕
🕗
🕘
🕛
🕯
🕰
🕳
🕴
🕵
🕶
🕷
🕸
🕺
🖋
🖌
🖍
🖐
🖑
🖒
🖓
🖕
🖖
🖤
🖥
🖰
🖼
🗓
🗞
🗣
🗨
🗺
🗻
🗼
🗽
🗿
😀
😁
😂
😃
😄
😅
😆
😇
😈
😉
😊
😋
😌
😍
😎
😏
😐
😑
😒
😓
😔
😕
😖
😗
😘
😙
😚
😛
😜
😝
😞
😟
😠
😡
😢
😣
😤
😥
😦
😧
😨
😩
😪
😫
😬
😭
😮
😯
😰
😱
😲
😳
😴
😵
😶
😷
😸
😹
😺
😻
😼
😽
😾
😿
🙀
🙁
🙂
🙃
🙄
🙅
🙆
🙇
🙈
🙉
🙊
🙋
🙌
🙍
🙎
🙏
🚀
🚁
🚂
🚃
🚄
🚅
🚆
🚇
🚉
🚊
🚋
🚌
🚍
🚎
🚑
🚓
🚔
🚕
🚖
🚗
🚘
🚙
🚚
🚞
🚢
🚣
🚥
🚦
🚧
🚨
🚩
🚪
🚫
🚬
🚲
🚴
🚶
🚷
🚹
🚺
🚻
🚼
🚽
🚿
🛀
🛁
🛋
🛍
🛎
🛏
🛑
🛒
🛠
🛫
🛵
🛶
🤍
🤎
🤐
🤑
🤒
🤓
🤔
🤕
🤖
🤗
🤘
🤙
🤚
🤛
🤜
🤝
🤞
🤟
🤠
🤡
🤢
🤣
🤤
🤥
🤦
🤧
🤨
🤩
🤪
🤫
🤬
🤭
🤮
🤯
🤰
🤲
🤳
🤴
🤵
🤷
🤸
🤹
🥀
🥁
🥂
🥃
🥄
🥇
🥈
🥉
🥊
🥐
🥑
🥒
🥓
🥔
🥕
🥖
🥗
🥘
🥙
🥚
🥛
🥜
🥝
🥞
🥟
🥠
🥡
🥢
🥣
🥤
🥥
🥦
🥧
🥨
🥩
🥪
🥫
🥬
🥭
🥮
🥯
🥰
🥱
🥳
🥴
🥵
🥶
🥺
🦀
🦁
🦂
🦃
🦄
🦅
🦆
🦇
🦈
🦉
🦊
🦋
🦌
🦍
🦎
🦐
🦑
🦒
🦔
🦕
🦖
🦘
🦜
🦞
🦟
🦠
🦢
🦪
🦰
🦱
🦲
🦳
🦴
🦵
🦶
🦷
🧀
🧁
🧂
🧈
🧐
🧑
🧒
🧓
🧔
🧖
🧘
🧙
🧚
🧛
🧜
🧝
🧞
🧟
🧠
🧡
🧣
🧤
🧥
🧧
🧨
🧩
🧳
🧸
𠊎
𠒇
𠝹
𠮷
𠱁
𠱸
𠴱
𠵱
𠹺
𠺘
𠺢
𠻹
𠼦
𠽌
𡁻
𡃁
𡒉
𡙡
𡚒
𡰪
𡳞
𢃇
𢆡
𢇁
𢭃
𢱑
𢱕
𢳂
𣄃
𣈱
𣉢
𣊬
𣎴
𣏌
𣚅
𣲙
𣲷
𣺉
𣾀
𣾷
𤆥
𤏸
𤓓
𤔡
𤘅
𤨒
𤩹
𤷪
𤺧
𥄫
𥇦
𥌎
𥚃
𥦬
𥧌
𦟌
𦧲
𧄌
𧎚
𧐢
𧙗
𧩙
𨋢
𨍭
𨥈
𨥙
𨧀
𨨏
𨨥
𨭆
𨭎
𨳒
𨶙
𩣑
𩶘
𩷶
𪂹
##1
##8
##4
##カ
##る
##シ
##ュ
##ラ
##ム
##ハ
##ー
##テ
##ク
##ル
##て
##n
##c
##a
##は
##e
##l
##s
##t
##d
##i
##y
##ᅡ
##ᆫ
##ᄌ
##ᅥ
##ᄒ
##ᅪ
##ᆨ
##ᄋ
##ᅵ
##ᄃ
##ᅬ
##r
##o
##w
##k
##v
##く
##す
##こ
##と
##ャ
##フ
##ト
##に
##ᅨ
##ᆯ
##ᄑ
##ᅮ
##ᆼ
##ᄀ
##ᅴ
##ᅧ
##ᅳ
##ᄅ
##ᅩ
##ᄇ
##ᄐ
##ヒ
##ッ
##p
##ᆷ
##ᄉ
##ᅢ
##リ
##h
##ア
##タ
##g
##イ
##エ
##ン
##ェ
##ᅦ
##ロ
##マ
##チ
##ス
##ょ
##う
##あ
##ん
##め
##さ
##っ
##た
##ᄆ
##ᄂ
##＝
##ニ
##の
##を
##ᄎ
##ᆻ
##つ
##い
##b
##j
##ᄏ
##m
##サ
##オ
##ナ
##コ
##か
##ら
##3
##ま
##ぬ
##ィ
##お
##よ
##ひ
##ヘ
##も
##ケ
##り
##メ
##ᅣ
##な
##け
##q
##z
##7
##u
##ホ
##し
##レ
##ᅭ
##ソ
##9
##6
##ノ
##そ
##ゥ
##み
##き
##5
##0
##ウ
##モ
##ョ
##キ
##x
##れ
##ᄄ
##～
##せ
##ち
##2
##ᅲ
##😍
##ल
##ा
##त
##ी
##म
##द
##व
##セ
##ᅱ
##→
##ツ
##へ
##ᄁ
##ᆺ
##ミ
##ふ
##ゅ
##や
##ᆸ
##ネ
##ワ
##ᆲ
##f
##ろ
##ゃ
##👏
##🏽
##ォ
##е
##с
##😭
##ヤ
##а
##б
##и
##к
##о
##г
##н
##え
##ユ
##ァ
##°
##в
##т
##р
##￥
##±
##∼
##わ
##😂
##ᆮ
##ほ
##ᄊ
##ᅯ
##😱
##×
##ヌ
##🍓
##ｍ
##ヨ
##ª
##ر
##ز
##ش
##ی
##℃
##む
##ᆩ
##ø
##া
##ত
##ি
##ন
##ী
##ı
##ι
##δ
##ε
##ν
##α
##ᅰ
##∕
##𝘰
##𝘳
##𝘭
##𝘥
##ρ
##ο
##σ
##κ
##ς
##ᇁ
##ゆ
##μ
##ர
##ச
##ி
##ம
##◌
##５
##４
##８
##＜
##ы
##☆
##ぇ
##п
##д
##ね
##ұ
##л
##≧
##ᄍ
##ᇀ
##☺
##ᅫ
##æ
##ａ
##ｔ
##ｈ
##ｏ
##ｋ
##ᄈ
##🐷
##ᆱ
##ʻ
##ह
##ि
##न
##ः
##ⅰ
##🙇
##😘
##９
##３
##ᆶ
##υ
##｜
##£
##ᆾ
##ㆍ
##🍫
##ᇂ
##№
##🍸
##🍹
##β
##ː
##ய
##ா
##வ
##ழ
##ப
##∗
##😆
##ᆹ
##─
##😃
##ぁ
##≡
##👍
##🏿
##ﾉ
##ﾊ
##ﾞ
##ﾀ
##ß
##ł
##²
##♪
##ᆰ
##ө
##і
##＋
##³
##ا
##ع
##ة
##х
##🤪
##у
##œ
##ђ
##−
##ш
##２
##қ
##１
##ㄟ
##ㄋ
##👉
##👈
##ｎ
##ｕ
##⃣
##🤔
##ү
##ь
##र
##च
##ᆽ
##🇵
##🇭
##🇰
##🚦
##ب
##ي
##ه
##ห
##เ
##ธ
##อ
##ค
##น
##ด
##ใ
##ป
##พ
##ศ
##ษ
##０
##６
##７
##㎡
##ф
##ц
##ю
##⑮
##ゐ
##ท
##π
##ƒ
##ｖ
##💞
##м
##ч
##💚
##💛
##💜
##❤
##ㄊ
##ㄙ
##👸
##ω
##η
##ᆬ
##ж
##ช
##า
##ง
##ำ
##φ
##®
##ｗ
##ｑ
##🏻
##💪
##ㅣ
##γ
##τ
##❗
##＞
##ғ
##⇒
##ə
##ᅤ
##╰
##ヲ
##💗
##ζ
##║
##○
##ل
##ف
##ك
##🍰
##ㄇ
##✌
##λ
##ξ
##🇪
##🤗
##😋
##þ
##≪
##ʷ
##ਲ
##ਾ
##ਜ
##ਮ
##ヽ
##ｊ
##ヶ
##ส
##ร
##ย
##ม
##゛
##ң
##😅
##√
##🤦
##♀
##ﾟ
##🤷
##♂
##ℓ
##⋯
##ע
##צ
##מ
##א
##ו
##ת
##△
##ण
##ड
##😣
##य
##🖤
##س
##㎏
##½
##ｌ
##ｐ
##㎜
##⋆
##ⅱ
##🔥
##ｄ
##ｅ
##ヵ
##ി
##ര
##ണ
##ാ
##യ
##ക
##ゝ
##∩
##ｆ
##ठ
##🤯
##😚
##ʲ
##🧀
##🇽
##🐥
##đ
##ⅲ
##🤤
##↓
##🍔
##🍝
##ـ
##م
##ح
##د
##😢
##ㄧ
##ㄤ
##ｃ
##я
##★
##∠
##ㄆ
##ㄏ
##ｉ
##◆
##🤭
##ن
##∽
##ｓ
##●
##◎
##ל
##ר
##ט
##ב
##θ
##😰
##🙄
##ᆭ
##😔
##ณ
##պ
##ր
##ի
##ะ
##ต
##ข
##ｒ
##ས
##ว
##😑
##✨
##🤘
##ј
##ㄚ
##ˇ
##™
##ա
##ㄢ
##ㄣ
##ˉ
##ㄅ
##♯
##😗
##ヮ
##з
##ｂ
##◇
##◣
##▼
##◥
##◤
##├
##▇
##┼
##▏
##▲
##💏
##💑
##ت
##و
##ѕ
##♡
##🥴
##😳
##ㄑ
##ग
##स
##🍎
##🏝
##ʔ
##ә
##🦄
##ぅ
##ㄠ
##ˊ
##ㄎ
##😏
##😒
##👇
##˚
##⭐
##⠀
##☕
##🍌
##₃
##ञ
##क
##ो
##〇
##ה
##ד
##¼
##∞
##➡
##´
##🙈
##ъ
##😲
##😨
##ㄞ
##ผ
##จ
##บ
##⑦
##←
##🍲
##ე
##ნ
##ა
##ზ
##ღ
##უ
##რ
##ბ
##ი
##ญ
##ｵ
##ﾁ
##◯
##ｘ
##ج
##ო
##ც
##ს
##დ
##მ
##🍴
##բ
##י
##ם
##ㄥ
##ㄨ
##ㄛ
##💆
##🐾
##≫
##แ
##🤣
##🏼
##ਵ
##င
##း
##န
##ज
##ո
##դ
##÷
##ð
##ㄕ
##ㄉ
##ㄜ
##˙
##¾
##♥
##🐰
##🐢
##💄
##💖
##😹
##ล
##ط
##☁
##🚃
##🚉
##🦀
##ぃ
##ˀ
##😈
##🍦
##ਿ
##ਸ
##ਨ
##ੀ
##ˈ
##🍳
##ట
##ు
##వ
##ప
##〓
##▉
##🍺
##౪
##🌽
##🤙
##㏄
##😌
##ก
##ˋ
##🙃
##🍅
##🍒
##🎺
##🎏
##🤓
##ぉ
##🍟
##😻
##👌
##🔙
##ĸ
##ʰ
##😸
##ㅠ
##🙌
##χ
##🔍
##ા
##ર
##🍚
##🇸
##🇬
##😕
##फ
##¹
##🥂
##ধ
##ব
##😡
##🤬
##😤
##😠
##🎅
##❄
##प
##😯
##🐭
##த
##ு
##≤
##💫
##🥗
##㎞
##∈
##💬
##㎝
##ɔ
##˩
##˧
##ष
##☓
##🥺
##⚽
##🎱
##щ
##🏾
##վ
##ն
##ւ
##ե
##🥳
##נ
##ך
##٩
##ܝ
##ܟ
##😟
##₆
##₁
##₂
##≒
##🔄
##🎂
##๑
##🚨
##↑
##ɛ
##￼
##ヰ
##🙏
##🌸
##🎋
##🌼
##😇
##ூ
##ட
##ந
##€
##¢
##ਚ
##ˑ
##⚡
##✩
##ไ
##📸
##🙆
##👩
##👧
##👦
##②
##😧
##😦
##♨
##😫
##ɪ
##¥
##ᆪ
##ᆳ
##ᆴ
##ᆵ
##ᆿ
##😁
##🙋
##ㄩ
##ㄍ
##ㄓ
##🙉
##🙊
##⋅
##خ
##ｙ
##э
##լ
##শ
##দ
##য
##ল
##ხ
##º
##①
##💦
##✴
##ມ
##ໂ
##ຄ
##ງ
##ສ
##າ
##ຈ
##ກ
##ք
##ㄔ
##ㄡ
##ঙ
##ײ
##ס
##ן
##🧚
##🇹
##🌟
##🙂
##😽
##🎬
##ㄒ
##🥖
##❓
##ා
##ය
##ක
##🌠
##📣
##გ
##ვ
##ח
##🥬
##😀
##😬
##㎢
##😛
##ʃ
##🤚
##ˍ
##😙
##∧
##😊
##ಲ
##ಚ
##ಪ
##ರ
##😐
##╯
##㈱
##כ
##ව
##ප
##ර
##ත
##ෙ
##ණ
##🔫
##¤
##♠
##ｇ
##ਏ
##ற
##😄
##😼
##ｸ
##ﾛ
##ｰ
##∑
##𝐫
##𝐢
##𝐜
##𝐞
##ⓤ
##😓
##ɑ
##💕
##🥛
##╱
##ʿ
##👅
##ದ
##ಭ
##ಸ
##ತ
##ು
##ಮ
##ೂ
##ಂ
##ಕ
##🍣
##🍤
##ㄈ
##㏊
##🤢
##ϵ
##ץ
##ｴ
##ﾔ
##ﾏ
##🧡
##🤩
##ㄌ
##🌺
##ਈ
##㍍
##ㄝ
##ខ
##ច
##ង
##ទ
##ៅ
##ស
##ា
##រ
##ជ
##ម
##យ
##គ
##ន
##գ
##ಹ
##ಾ
##ಣ
##ㄐ
##ண
##👭
##👬
##👫
##ﾋ
##ｹ
##ﾄ
##ʌ
##ɚ
##🎓
##😝
##є
##🍞
##💁
##ǝ
##🥰
##😥
##￡
##━
##┻
##┓
##❌
##🦐
##इ
##🍢
##🐂
##🐄
##🐮
##🐴
##➕
##≈
##ى
##😎
##🌷
##🥀
##ɐ
##🇼
##☝
##ｚ
##ק
##โ
##ŋ
##🌹
##ະ
##ອ
##ນ
##ຫ
##ລ
##ວ
##ਣ
##🥘
##ゑ
##👂
##ທ
##ດ
##🍪
##＄
##િ
##સ
##ન
##¸
##🎉
##💙
##ෆ
##∴
##ゎ
##ே
##ਤ
##∘
##❜
##ｾ
##ﾝ
##๒
##ʕ
##ㅅ
##۶
##🍵
##ϕ
##↗
##©
##פ
##ภ
##⁴
##ლ
##ჩ
##ძ
##տ
##կ
##👰
##ன
##ｶ
##ｲ
##ｼ
##ﾐ
##ｽ
##ג
##🏮
##ʼ
##ຍ
##ຜ
##ຕ
##ພ
##ຊ
##ໄ
##⠁
##🥶
##ق
##🎹
##⁵
##㎒
##｀
##µ
##თ
##¬
##∙
##ฯ
##∊
##👀
##✈
##🌈
##জ
##প
##র
##💔
##க
##ல
##⇔
##🚺
##🤨
##🍨
##🍏
##🤛
##∨
##ག
##བ
##ལ
##♦
##🎲
##🎒
##┬
##＾
##👆
##һ
##క
##స
##ర
##ং
##গ
##ে
##ਗ
##⊂
##⌒
##چ
##ʽ
##♭
##ਦ
##ਰ
##ध
##🥵
##💩
##گ
##ɨ
##✮
##🍿
##ש
##ɘ
##💃
##श
##💓
##╮
##ʾ
##💌
##զ
##յ
##ց
##ฉ
##ɬ
##🎸
##🐙
##👨
##ஜ
##ㅁ
##ɲ
##ɟ
##🖕
##👿
##🐽
##ʚ
##ɞ
##◀
##ψ
##💸
##ܫ
##ܘ
##ܐ
##✖
##🎊
##ை
##െ
##മ
##പ
##ट
##🤝
##🍙
##ฬ
##ถ
##🥦
##🥕
##💯
##🍾
##🥞
##ﾅ
##￩
##🍑
##ᵕ
##⬇
##ග
##🇷
##հ
##ս
##ɾ
##ਆ
##ث
##ெ
##∇
##≦
##㈜
##ض
##🐲
##🦁
##ซ
##🎐
##˃
##ᴗ
##˂
##छ
##ๆ
##ʏ
##մ
##ʀ
##ᴇ
##ᴀ
##ᴍ
##𝘴
##𝘪
##𝘵
##𝘯
##🎈
##🇳
##🇲
##↔
##🔺
##ৰ
##ম
##غ
##🐧
##꒰
##🌤
##🥢
##ਘ
##ਟ
##ȝ
##ヱ
##🥒
##ʊ
##ɡ
##भ
##👙
##㎥
##🥩
##ʉ
##③
##🐦
##ʹ
##゜
##ఠ
##థ
##భ
##శ
##ష
##హ
##ព
##љ
##ћ
##🔴
##⚪
##ㅤ
##پ
##ہ
##ﾓ
##ಡ
##ಬ
##ೕ
##ಳ
##⁶
##⁰
##👼
##შ
##💋
##💡
##🍕
##ｳ
##ҳ
##🐱
##ฮ
##🤞
##🤫
##🐤
##│
##🤐
##ტ
##⑉
##𝐚
##𝐬
##𝐡
##⌣
##˘
##㎛
##ﾆ
##ｻ
##ﾙ
##ｭ
##ｯ
##ɒ
##ਬ
##🍖
##🍗
##🦱
##ᆞ
##🦞
##ک
##ᴴ
##ᴬ
##ᴿ
##ᴱ
##ਫ
##ƕ
##☘
##☹
##💘
##👄
##👋
##ത
##ല
##ए
##ပ
##သ
##အ
##စ
##ʟ
##😉
##♕
##ㅡ
##🌌
##🤑
##╋
##🎶
##ﾃ
##℉
##🍽
##ੜ
##থ
##🐶
##🌱
##😜
##ⅹ
##▽
##🐔
##◡
##ऽ
##ವ
##☀
##ﬁ
##🍡
##🍥
##ʒ
##㎎
##ብ
##ﾜ
##ﾗ
##🍉
##◢
##┴
##□
##┤
##∵
##ం
##ﾘ
##♊
##🍷
##ᐛ
##ਡ
##շ
##න
##🐈
##🇻
##🍂
##🌰
##😩
##ղ
##ծ
##😞
##👾
##✺
##😖
##թ
##ල
##ေ
##ါ
##လ
##ာ
##မ
##হ
##⽉
##㎍
##🌿
##🤠
##🥣
##🌁
##ㅎ
##≥
##¨
##￠
##▌
##҉
##ރ
##ㇻ
##ㇷ
##ங
##ㄗ
##🏆
##🔗
##🌭
##🌮
##🌯
##📽
##🐠
##🐟
##🐡
##🌲
##ਹ
##🍀
##ब
##🤲
##🎟
##⊙
##☷
##ﾌ
##🥄
##🔪
##㎑
##⟹
##ତ
##ା
##🇴
##🏳
##🙅
##🎩
##🤮
##👱
##˝
##🙁
##🍜
##ㄖ
##ყ
##🐃
##🎁
##😿
##❣
##🇦
##🇺
##ན
##∫
##ء
##✦
##✧
##ƿ
##🤒
##🕊
##🍊
##ｱ
##ﾕ
##ﾇ
##∏
##ख
##🍠
##ജ
##ദ
##￣
##㌔
##🍮
##ſ
##ळ
##ϛ
##ও
##👃
##🍻
##ℏ
##¦
##💂
##👮
##ං
##५
##३
##♉
##🌝
##🌚
##ㅔ
##இ
##🌛
##👻
##ᚢ
##ħ
##👎
##న
##ూ
##ㄷ
##ㅂ
##ㅈ
##װ
##ɗ
##🌎
##ಯ
##℅
##꒪
##🥟
##🔝
##∂
##ㅗ
##ｨ
##ﾍ
##🧐
##🌍
##┃
##〵
##ﾒ
##🏍
##🎞
##ਕ
##⁄
##ಗ
##ຂ
##┗
##⚜
##⠄
##⠈
##⠂
##💥
##🐺
##🎤
##🏫
##ը
##🐖
##🦑
##🐚
##ষ
##ঠ
##ʱ
##ʈ
##¯
##🎦
##🌃
##⌚
##ᴥ
##ಠ
##ⅶ
##🎵
##ﾎ
##ﾚ
##ｮ
##✊
##බ
##ම
##ص
##ਪ
##ཞ
##ར
##😮
##ფ
##🌶
##💭
##𝛑
##ద
##డ
##խ
##ջ
##և
##🇩
##👴
##👠
##🤧
##ѵ
##ߐ
##✋
##♈
##🏅
##💲
##ז
##㎘
##ள
##🔸
##∀
##∮
##ɫ
##⾃
##🥤
##🤥
##ⅳ
##އ
##މ
##ދ
##■
##々
##ຮ
##ບ
##ແ
##ເ
##ປ
##კ
##ჯ
##ई
##మ
##య
##ظ
##🏃
##👊
##⌯
##ฐ
##🇯
##ಥ
##ପ
##ନ
##ㄹ
##🏊
##ඩ
##📑
##🕴
##⏰
##ɯ
##🎄
##🔆
##🔅
##♬
##ㄱ
##ള
##േ
##⼀
##🇮
##🤡
##ਖ
##🏈
##👤
##थ
##🎃
##ড
##ছ
##🦕
##〆
##🍋
##🌆
##🤟
##🍧
##💐
##💀
##ㅇ
##ە
##💻
##◾
##🔻
##ਉ
##⑥
##ក
##ස
##🐿
##త
##🌞
##🎥
##🖖
##🍈
##ⅷ
##🍯
##♓
##↠
##ꜩ
##⽅
##ട
##ന
##റ
##㎾
##ញ
##ល
##ៀ
##🥝
##ɤ
##✡
##⛵
##♒
##🔊
##ⁿ
##👑
##🥫
##🛑
##🚥
##🚩
##😵
##ɥ
##ʇ
##ခ
##ရ
##🥯
##🥁
##🌕
##🌘
##🌑
##ㅋ
##ⅴ
##👪
##ǃ
##ల
##ჿ
##♏
##◊
##স
##┛
##◄
##🌒
##⇨
##🥧
##🧁
##🍬
##🍩
##˜
##╧
##ㅿ
##⃝
##🤰
##🍶
##ﾂ
##🍐
##👯
##⚖
##˵
##🤕
##ᵒ
##ᶅ
##ⓡ
##ㄘ
##✅
##ཤ
##ㄦ
##🥐
##🥓
##🍛
##🐝
##വ
##ㄴ
##⑧
##┐
##╭
##པ
##ქ
##👳
##😺
##😶
##😴
##👶
##∪
##ฟ
##💨
##ｷ
##🛶
##🍇
##🍍
##🥑
##ˤ
##ক
##🍱
##⽇
##🇫
##ⓢ
##ⓟ
##ⓔ
##ⓖ
##ⓘ
##ⓛ
##ے
##ಶ
##🐕
##ں
##ད
##ॉ
##⁺
##▫
##🎼
##⼈
##🦵
##ᴏ
##ം
##ⅸ
##👵
##❶
##🍆
##⼃
##⼁
##🔨
##ㅜ
##ট
##🦆
##꒱
##⑤
##↘
##↙
##█
##ɜ
##▹
##⑫
##💣
##ױ
##ᆡ
##⅔
##🐣
##✭
##१
##⟺
##ɴ
##🇾
##ٹ
##ھ
##👹
##ᴛ
##▾
##🕒
##₫
##௰
##ⅵ
##🥚
##ር
##⏱
##🦟
##⬆
##ஸ
##⇄
##∣
##⏪
##🔮
##👣
##𝗲
##𝗮
##🍃
##⦁
##ﾈ
##🎌
##🥊
##⌓
##🐏
##✝
##🙀
##☠
##☜
##◉
##😪
##₀
##┳
##👽
##▶
##🖐
##💍
##🐹
##🈴
##👖
##👗
##🗣
##⁸
##ຳ
##🐇
##🏞
##░
##▄
##💅
##🐑
##ｺ
##┊
##ｧ
##🕺
##❎
##👘
##🐳
##∆
##ↂ
##🎎
##╹
##ਛ
##𝐧
##▂
##🍁
##✿
##घ
##ﾑ
##🚴
##ប
##ళ
##സ
##☔
##అ
##ㇱ
##💎
##☉
##🐓
##🐸
##ނ
##΄
##ຖ
##🎆
##😷
##❖
##🙍
##🐍
##┘
##🐼
##❞
##￢
##ජ
##🇿
##🌓
##ስ
##🥥
##㊙
##ܒ
##☵
##👚
##👛
##₹
##♫
##མ
##ြ
##တ
##⁼
##ढ
##ฅ
##ਥ
##🖍
##է
##२
##┌
##ㄾ
##ㅌ
##ɦ
##►
##♧
##⑴
##∖
##ᴜ
##პ
##🤖
##💼
##📦
##ཐ
##འ
##💰
##④
##ક
##ો
##હ
##🐻
##ત
##ી
##ܪ
##ܠ
##ⴰ
##ⵉ
##ⵜ
##ժ
##⑲
##ʺ
##ʙ
##ហ
##њ
##🚗
##🚙
##𝐄
##🖌
##▒
##📻
##🍄
##🧠
##ꇴ
##꒳
##🤍
##▪
##চ
##◕
##🍼
##ɣ
##💧
##ɕ
##ǀ
##🦴
##ഷ
##∶
##ང
##🦈
##⊃
##♌
##ӏ
##✕
##㉯
##ਅ
##✂
##ㅑ
##ذ
##🛏
##🧈
##❦
##📷
##ꙫ
##ᴋ
##🏙
##♢
##ᴅ
##♰
##🗺
##🐜
##ף
##◞
##◟
##က
##🏠
##🥭
##₤
##ɭ
##✔
##४
##ⅿ
##🐵
##⃞
##⚠
##ਇ
##🦲
##ೃ
##▓
##⬅
##⊿
##ɹ
##🉐
##ោ
##▬
##𝘢
##ැ
##▔
##🐯
##🌖
##💢
##🅰
##🥪
##ද
##ङ
##ণ
##🏄
##🦎
##🕷
##🦂
##₳
##ཏ
##￫
##ཙ
##⛩
##చ
##ｪ
##▷
##🕶
##ಢ
##🐬
##ʐ
##🐒
##ฆ
##ौ
##ˠ
##🕵
##🚑
##🌗
##𝗶
##๕
##๐
##🥨
##🌊
##↝
##🥔
##⁻
##🛵
##೭
##ฒ
##𝗻
##๓
##ළ
##ཇ
##☞
##ਭ
##🥇
##₄
##କ
##ଳ
##ର
##▨
##ฏ
##═
##╩
##╝
##ｬ
##⎛
##⎝
##⎜
##⎞
##⎠
##⎟
##ㄳ
##🌬
##🌙
##⊥
##წ
##🈶
##🐛
##👥
##🐀
##ට
##💳
##ˌ
##ओ
##⚕
##🦖
##🧒
##ᠠ
##७
##ґ
##˦
##▱
##╲
##┈
##🎧
##🎫
##ˆ
##ฝ
##👜
##◁
##ើ
##ໃ
##🔹
##🤹
##ɢ
##🍭
##ѣ
##ຽ
##🗨
##🌜
##ᴘ
##🍘
##🛒
##❕
##🌳
##💟
##🌻
##꞉
##٥
##ನ
##📢
##♐
##ܥ
##ܬ
##👐
##ਠ
##⼦
##✘
##ճ
##📍
##ຣ
##⑸
##˨
##⠻
##⣿
##⠟
##⠋
##⣼
##⠿
##⠉
##❛
##ڡ
##🇨
##ｿ
##☴
##ʎ
##🔧
##⼝
##ㅏ
##ㇼ
##ܕ
##ܢ
##♤
##០
##ໜ
##♔
##ਢ
##ऊ
##ଘ
##উ
##🥈
##🥉
##⤵
##ঞ
##ཛ
##🧖
##६
##ᛁ
##⭕
##⼊
##ʤ
##͵
##ਝ
##🏀
##〒
##🎖
##औ
##∝
##🇧
##ռ
##🚀
##ㄲ
##ㄵ
##ㄶ
##ㄸ
##ㄺ
##ㄻ
##ㄼ
##ㄽ
##ㄿ
##🚫
##ই
##⩽
##గ
##🥙
##❇
##🛍
##ʁ
##ژ
##ҥ
##ȥ
##🐨
##ን
##💝
##🛎
##ᵹ
##ﬀ
##☟
##ĳ
##ះ
##វ
##ត
##🐫
##ჰ
##ඳ
##🈵
##ɓ
##ⵔ
##◔
##👺
##🌂
##🐞
##🏓
##🚣
##🎯
##🎪
##🏎
##🚂
##🚁
##⛽
##🌋
##☎
##📮
##📕
##📅
##📆
##📌
##㊗
##🈲
##🅱
##🆘
##⛔
##📛
##ျ
##🐩
##🦊
##⅓
##🥃
##📝
##♮
##⛲
##🎣
##⚾
##🎇
##⋮
##හ
##ʘ
##🎡
##ែ
##🇱
##🏵
##❼
##₩
##🚲
##☄
##⎣
##⎢
##🎀
##օ
##ʦ
##ᴄ
##🔘
##☑
##🌵
##🧓
##🌪
##┫
##आ
##ਊ
##ৱ
##◦
##ㅸ
##∃
##🏖
##❻
##⊗
##🦰
##꜀
##🕯
##♋
##🧂
##ᴼ
##ᴰ
##ゕ
##उ
##ಜ
##ƪ
##ീ
##🚶
##♑
##ಟ
##🔜
##ယ
##⼩
##⽥
##ﾖ
##🦔
##❀
##փ
##🙎
##🥜
##🧧
##▀
##ഗ
##ʨ
##🚄
##🚅
##ደ
##ት
##∥
##🦌
##𝐨
##𝐭
##🐋
##ₐ
##ㅢ
##⏬
##🤜
##џ
##🌄
##⁹
##🔞
##☱
##📱
##⚔
##⛏
##🏋
##⠑
##⠃
##⠇
##⠙
##🤵
##⾁
##ɵ
##ᵀ
##🐘
##🦅
##🔚
##⊆
##🌾
##☳
##🚘
##🖒
##খ
##ɿ
##ڈ
##⑨
##₅
##अ
##𝘦
##₋
##🗽
##⚫
##🔵
##🔋
##➗
##ᐃ
##ᐢ
##ങ
##⏳
##🌔
##🤴
##🎗
##〡
##ﬂ
##⛹
##▅
##▃
##▆
##ჷ
##ჭ
##🏐
##મ
##˥
##ˁ
##㉨
##৹
##ʖ
##🎨
##♍
##⅞
##ɻ
##⌘
##🦋
##బ
##⼯
##💠
##ᴵ
##☲
##⌟
##ཚ
##⣀
##⣽
##ফ
##દ
##👷
##ㇰ
##☃
##💮
##ഹ
##📖
##⊕
##✪
##✯
##✰
##េ
##✓
##ል
##🌴
##🔱
##০
##🦇
##झ
##🐉
##🌐
##◝
##ƶ
##ㄫ
##⛅
##💤
##🚽
##ᴷ
##०
##ည
##🏨
##🏡
##👁
##˒
##ꐦ
##🦠
##₵
##ㅉ
##⼿
##🚬
##ដ
##🐐
##អ
##🗿
##🦘
##🔌
##𝗼
##𝘁
##𝗿
##⌛
##㋮
##🧔
##ཆ
##ㅀ
##⢿
##⣷
##ㅝ
##ㅓ
##ㅛ
##ਧ
##📈
##ഭ
##㊣
##ᅙ
##🔖
##₴
##⅜
##८
##┣
##🧑
##╬
##🔎
##˺
##≅
##🏹
##∅
##🌀
##㎚
##ভ
##🧜
##ʜ
##≖
##╥
##ཁ
##🎻
##♣
##ܗ
##ຢ
##ꂧ
##￦
##⚈
##↖
##🖓
##ఇ
##ˢ
##ձ
##🎠
##✻
##ᗜ
##⽂
##➖
##🧛
##😾
##ㆁ
##🦶
##ڠ
##ᵎ
##ⅺ
##📘
##⃤
##📲
##ϝ
##ᴸ
##ᵞ
##🦜
##ᵗ
##▩
##ʝ
##ʋ
##ʧ
##జ
##ǁ
##🥮
##🦳
##ŧ
##ҕ
##⑩
##ꜣ
##ฤ
##ฎ
##ཉ
##⚰
##🕸
##ɳ
##ཨ
##ฑ
##⚓
##🦉
##۞
##۩
##㌧
##🥠
##ⓞ
##🚋
##ណ
##١
##ᵢ
##🚧
##🤸
##▿
##⛰
##➢
##ㇽ
##🧞
##ʑ
##📚
##ˣ
##ʂ
##ㅕ
##ᴺ
##⁷
##👒
##✍
##🦢
##ਯ
##୧
##👟
##⎤
##⎦
##⎥
##ԅ
##⛄
##♎
##🚕
##ᗨ
##🚼
##◐
##۹
##ཀ
##˓
##🛫
##☻
##✏
##🌫
##ශ
##🤎
##㎖
##🏭
##〣
##🥱
##ಎ
##ᴾ
##🧙
##ភ
##♩
##ʍ
##⑪
##ᴡ
##ⓐ
##ગ
##ㆆ
##⑯
##🏴
##🗼
##🏥
##🏔
##⑵
##🕰
##ᯅ
##❁
##🛠
##ཕ
##🕗
##𐌠
##ꈊ
##ܚ
##⾏
##⛈
##ᵔ
##ܡ
##🛀
##ℵ
##ም
##📹
##📞
##⑷
##🆗
##◈
##✄
##❸
##ထ
##⢀
##⣾
##⣴
##⡿
##⣦
##⠸
##🕐
##╚
##╗
##ဘ
##🎮
##ବ
##∋
##☛
##ꈍ
##👓
##⇩
##𝐥
##ɸ
##መ
##ㅊ
##≺
##🏢
##વ
##🔔
##⤴
##❥
##ﬃ
##🧝
##ஞ
##꜂
##₱
##♾
##ㅐ
##🧟
##✳
##🚊
##🤳
##❍
##🗻
##ⓙ
##ⓜ
##ⓑ
##🚌
##ঘ
##🔑
##⣤
##⣄
##⡀
##⣶
##⡇
##⠛
##⡟
##⣆
##🧘
##🌏
##➜
##🔼
##⌄
##⛳
##۳
##🐊
##⼂
##🦒
##₌
##˭
##ᗢ
##˶
##ᵏ
##੭
##չ
##⊢
##☣
##ച
##▰
##◍
##㈲
##🛋
##☂
##🉑
##🔷
##꒦
##🚢
##ƣ
##🧨
##╳
##🕛
##💵
##♛
##ㅃ
##ㅆ
##❝
##ဖ
##🎑
##˳
##🆙
##ㅄ
##📰
##💈
##⌢
##ཧ
##📄
##⼤
##◑
##⑶
##ɷ
##🔈
##☼
##❔
##ℹ
##🈚
##⎪
##ʭ
##🐗
##🧩
##ʅ
##🏁
##⎡
##↩
##ℝ
##➰
##📜
##ꞌ
##🔓
##⾼
##୨
##└
##ꉂ
##𝘀
##ɖ
##ཡ
##🈹
##┏
##➤
##ཟ
##☽
##🔒
##ⓒ
##╦
##📺
##◽
##↦
##🚹
##➿
##⌥
##👲
##🎾
##🏸
##⛱
##🕘
##𝐈
##ဒ
##ഞ
##🦃
##⻣
##⛺
##↕
##⽣
##👕
##ㅘ
##९
##🌧
##ㅖ
##ఉ
##🚔
##🖑
##ཫ
##🦪
##💺
##💇
##☶
##☰
##🥡
##📉
##🧸
##🐅
##ᐠ
##⅝
##⽽
##⛤
##🕓
##ㅍ
##♻
##◜
##📋
##🌅
##ஐ
##🦍
##🚻
##❷
##શ
##▸
##⒈
##🕳
##⏩
##🚿
##🐌
##େ
##ӕ
##🐆
##🐁
##▋
##▎
##␣
##﹤
##🗞
##✽
##ശ
##📒
##🎭
##🐎
##🔽
##🎷
##🈷
##🕕
##🌉
##ཅ
##𝐋
##⑬
##ᑦ
##꜄
##🔯
##ǂ
##꜆
##⽤
##ㆀ
##🆓
##ㄪ
##ㄬ
##પ
##લ
##ㅒ
##ㅙ
##ㅚ
##ㅞ
##ㅟ
##𝘶
##⼒
##╔
##አ
##ㄭ
##🚚
##🀄
##㉱
##⌑
##🗓
##🔉
##🚇
##☯
##ೖ
##💽
##📩
##↪
##🖼
##🔬
##╴
##🌡
##⒊
##⇧
##⛴
##ऋ
##𝐒
##🚍
##ଡ
##✉
##🔰
##ↀ
##🧣
##🖥
##ˏ
##🦷
##🎍
##ఎ
##ఆ
##👞
##🚞
##⚙
##ѡ
##❺
##💉
##⚘
##₊
##◠
##ᕕ
##🔶
##ऐ
##🚓
##🆒
##⑅
##☐
##🔟
##⑭
##அ
##🚪
##ӡ
##ᵌ
##👔
##🚎
##♿
##🅿
##ꈨ
##🧤
##➔
##🎳
##ﻌ
##┉
##✎
##🚷
##🚆
##🚖
##❹
##⇌
##⊇
##অ
##⾯
##১
##〻
##🛁
##⺣
##≃
##ᕤ
##♚
##⚇
##🆕
##⅛
##౩
##∟
##↵
##➝
##ѧ
##℗
##▵
##ᐡ
##㉰
##◻
##ᶘ
##۱
##ӈ
##🧳
##📎
##🏬
##▍
##◼
##🕑
##༾
##🃏
##💊
##🧥
##℡
##⒌
##ᕙ
##☸
##੨
##꒫
##ټ
##⺼
##আ
##🏰
##⏺
##ᐜ
##⒉
##📃
##ȵ
##϶
##㉮
##ᕦ
##🌇
##✲
##฿
##ϖ
##ᕗ
##▴
##ℕ
##ꈡ
##⒋
##🖋
##🔲
##⌐
##ҫ
##❏
##◒
##ㅱ
##ℤ
nl
th
##er
the
##in
##on
##at
##nd
##ed
##es
##or
##ou
##en
##an
##ing
##ar
to
##al
in
##it
##is
of
and
##as
##ic
##om
##re
##el
##ion
##il
##et
you
##le
##ent
##ot
20
##st
##ac
##ec
##ad
##ow
wh
##ut
on
st
19
is
##ly
##id
##ve
it
for
##ur
##ol
be
##am
##ay
##이
re
##ig
that
sh
he
##ir
##ᅳᆫ
pr
##im
as
##ith
##ver
was
##ch
##se
al
an
##ᅡᆫ
##ter
##ᅳᆯ
with
##th
##ation
ch
##od
##다
ha
##ul
##ere
##ld
fr
##op
com
##ce
##ᅧᆫ
or
201
이
##os
##ess
con
at
##의
##ak
##ill
##us
##ers
##에
##em
##ag
##est
200
##ct
##하
##ain
ne
##igh
are
su
##ᅡᆼ
##ist
li
##는
not
tr
##ᅥᆫ
se
##로
##ould
##てい
##pp
ex
##oc
##um
we
##ab
##un
##ant
his
this
##ᅩᆼ
your
##and
de
do
10
by
from
can
have
##서
but
her
me
##ore
##ap
##ight
##ok
le
##ate
##art
##ᅧᆼ
sp
##ect
##ri
##gh
she
され
go
my
##ust
##all
ar
##ard
ab
##ell
##지
##을
they
wor
##if
un
##리
##ity
##ᆻ다
##어
した
##ie
##ome
if
##ᅮᆫ
##ack
##ally
##iv
pl
en
##00
##시
##ong
so
##ort
する
##ある
##ies
##년
##ive
all
##out
##ている
##og
##ough
##ast
##ment
had
##고
##った
br
##our
##ge
##가
cl
us
gr
##ost
12
im
##ine
up
##her
##ud
out
##one
##ound
##으
18
##ke
sa
##워
##ear
##ich
##ip
199
11
##스
##ook
will
what
##ᅥᆼ
one
##ake
no
##ia
##pt
##ind
##ᅮᆨ
pro
##은
##ber
##ame
int
##한
ad
there
tim
man
kn
##ish
##ure
fe
##ice
##ue
##해
##au
##ᅡᆯ
comp
##ide
when
##ial
##ous
##ated
##ach
##기
af
were
##도
##して
##av
##여
##act
##こと
am
would
##ace
##를
some
ac
their
##ian
##age
##ther
##own
##ry
about
how
who
him
bl
##iz
##ート
##ions
more
ag
has
ev
like
##라
から
##ary
##ᅮᆯ
##ース
15
##과
res
which
sc
cont
##qu
시
##ep
them
##ント
##oun
##ass
off
get
pe
##ᅩᆨ
##ely
time
##자
##so
new
cr
198
##ib
##ink
##ick
##ff
##일
any
##ub
##ence
app
##ンク
exp
just
dis
##tt
##uc
tw
over
가
bec
##ans
qu
per
also
##인
mar
car
##ang
##사
part
##end
##ose
16
##ire
dr
##ical
other
##아
##ite
rec
##ile
17
13
##orm
into
##으로
##able
work
##ター
##ond
##되
fir
may
##ro
##ティ
##나
사
fl
##reat
##ays
said
지
14
##월
ro
inc
##ult
pre
been
could
after
than
##ood
##ック
##ase
##에서
str
그
された
##ット
##ord
year
##ance
##ail
##ᅩᆫ
back
then
inter
##ps
##oll
##ations
##저
대
아
sm
##ール
##ings
##ign
co
ser
ph
##ens
rel
did
##ᅳᆼ
ever
don
comm
te
として
peop
##oss
see
know
197
##대
first
##ause
people
기
##ᅧᆨ
하
##ree
mo
には
주
てある
look
##fer
htt
##ory
##부
##hing
##ved
op
act
##ents
need
its
hel
##국
##ft
##ater
po
rep
##ていた
##aw
##int
##itt
form
##ild
して
##ery
ind
##ount
##urn
##uct
only
want
col
##ade
##nder
bet
em
imp
30
##ition
##ock
##화
##fe
ては
##ない
des
jo
##elf
##주
two
sy
thr
##와
lo
now
##ath
##ーシ
##les
##ᅵᆫ
should
##oth
##들
25
##ied
bo
##vel
によ
##ため
dec
196
##amp
ke
##ving
make
under
##we
##ious
##fore
##장
most
##れる
##트
##ors
good
par
every
##old
##ict
##other
down
even
wr
gu
とな
##ks
mu
21
##スト
inf
##bs
aw
##ert
##ᅢᆼ
acc
##정
##학
##iss
##リー
##anc
その
##orn
수
bu
rem
##iver
again
##omet
cons
sch
##르
sec
##요
way
##드
ed
##하여
22
자
##원
hand
where
before
well
because
##erm
##wn
##are
##ᅥᆯ
##れた
##수
att
제
24
##ra
##ress
think
##성
##이다
through
##적
##って
sl
23
##ful
##치
high
##いう
##から
##alk
long
our
전
use
gen
##상
##enc
right
these
somet
ass
##ys
##led
거
##ons
##ug
though
##구
##게
min
dif
##ise
나
なと
pers
mon
ear
##ual
inst
##xt
help
med
sur
##ah
many
very
##ble
##ates
ve
195
##ily
##19
reg
play
##よう
##lic
この
194
fin
##olog
cent
##ᅣᆼ
start
다
마
##もの
##ᅧᆯ
call
##20
##hn
##회
미
##lect
feel
している
있
##전
##ンス
##az
take
##었다
being
set
does
day
world
##aking
gl
add
26
##제
28
##ーム
##atch
##교
##yp
sos
##ating
##ᅩᆯ
##oup
##lud
id
sosad
##우
life
much
while
##ational
pol
bel
また
한
##ting
##ool
##イト
##イン
##ては
##cc
end
img
27
pres
##ually
##며
war
##러
ret
바
met
##ᅢᆨ
stud
##あった
##그
##ハー
##ember
##ョン
##ower
head
##동
##ject
el
still
##니
years
##ics
around
##air
유
##ix
##io
정
such
##ning
let
made
inv
dep
includ
##ᅦ이
##ward
##ited
sk
##ph
일
##iet
##uring
##ather
art
##마
##した
##ave
sim
say
29
bas
ey
##ular
##der
too
ins
2010
과
##ves
##터
spec
##land
own
##ogr
##ull
person
ma
cre
https
##br
here
##ible
ref
prod
supp
mus
った
2012
される
##ne
char
##면
2011
있다
##버
ask
##pl
##hip
open
differ
##ific
used
##gan
##あり
##ince
something
eng
2008
2009
##als
##ュー
193
중
##ange
trans
의
find
##get
##per
pub
try
count
공
going
found
happ
인
sw
fam
2013
2014
##self
school
##용
why
##ollow
##ms
경
##ody
##ities
2007
##ik
##ier
##up
##ween
same
31
보
http
##만
def
##ines
between
show
both
old
##명
##ーフ
es
##iew
follow
ll
##tern
위
어
mod
##eric
##ina
##uck
##lish
2015
last
best
read
didn
조
부
num
turn
##let
##ank
##ーク
##ash
##thing
disc
av
never
##ever
##ason
loc
##ッフ
##ouse
child
##ew
##ont
bre
real
##be
##oy
##ᅯᆫ
sub
gener
contr
화
역
2016
##문
모
##ivers
고
에
each
##いて
##its
wom
mean
air
##ative
##미
dist
eff
서
book
##irect
cur
pain
red
##유
cle
##ott
2006
##ope
bar
##iend
50
point
##선
##세
keep
##pr
##man
great
것
really
those
friend
##하는
##シャ
during
##10
jp
##타
americ
##てある
오
soc
care
ca
ob
##위
##stem
another
##계
lar
##ale
されている
small
##ins
direct
cour
##비
40
three
##ters
second
##リア
##ork
hist
##ric
##ner
##til
fil
##outh
##する
nor
bus
prov
##ently
##ness
face
cap
things
imgur
##velop
##ger
2017
##ittle
##ize
place
000
typ
system
##래
home
wee
되
ext
run
little
##민
group
##산
sure
few
100
##any
ok
##ures
##ことか
develop
##했다
list
##보
##야
##iel
la
##ments
##att
away
tell
since
##eck
해
sign
##신
개
men
##크
aut
ww
det
2005
연
##day
##ient
put
##ee
##ula
resp
mark
##form
thought
##ider
come
main
비
cor
##ライ
left
##소
class
val
##ark
##read
prop
##レヒ
##augh
##cept
##진
post
different
lead
##ways
rest
##red
にお
2018
water
love
##ern
pat
스
##된
prot
##조
top
poss
##ism
##ows
192
jpg
##リカ
##ds
##ience
##ection
fun
until
##공
##なった
pass
영
##ven
##れている
hard
##ead
구
소
##なと
www
name
conc
##ility
##akes
##vern
동
##ision
might
got
hum
등
##おり
##식
これ
univers
without
세
side
まて
del
serv
##という
##ene
gre
however
##ames
##iness
plan
##군
conf
##ral
##na
##ement
house
선
35
##레
har
##ton
intern
sing
##rib
eas
##なる
##ution
test
##하고
도
chr
##관
##eng
proble
elect
##ues
wa
order
giv
##aph
better
2004
govern
next
spe
against
beh
##카
저
##uss
##erg
##alth
talk
far
pop
フロ
##데
##ラン
##ように
##려
eyes
prof
later
lot
mem
##ically
##오
state
##mm
##ling
##호
##역
##거
##str
##ices
여
2000
##간
adv
cal
stand
big
##ob
##oot
##ior
city
fact
family
##ルト
##gr
##키
##ung
month
국
##재
body
tec
leg
stop
##カー
##ized
proc
차
formula
##ets
##ident
신
발
##ially
always
32
ent
bb
##ute
##음
light
law
var
arm
##ret
sever
##ᅳᆨ
##ush
##amm
night
##によ
dem
##ional
##iting
##ected
belie
ge
##차
press
##ax
contin
lear
##ages
commun
quest
##サー
sol
di
seem
build
##바
number
once
2003
##ology
sal
という
power
していた
##フロ
##way
##ten
ste
##osed
called
##リース
product
##ists
より
33
##ai
##として
##und
exper
##하였다
36
##12
star
##체
##ised
god
##ital
took
##res
team
상
import
vis
##었
must
give
using
dri
##メリカ
##なか
university
room
って
##ンシ
##업
による
##irl
##gg
##ained
##ention
food
requ
mil
having
mom
##ably
##ata
45
##티
ide
yes
four
##ren
someone
##경
inform
##app
##ty
ec
vol
##ants
##한다
##ined
##연
##ov
##무
public
2019
##당
노
walk
##단
##11
offic
##ove
##els
프
성
##ural
##inc
2002
pur
##행
##ンタ
##te
mat
##루
black
와
ir
times
##itch
38
miss
##ts
consider
john
effect
less
##unch
thing
##ased
##vers
후
line
enough
##その
days
oper
american
expl
techn
かある
##ンター
34
div
##ense
##ium
##ately
record
mind
design
came
관
sound
##18
##bn
##ンの
##リス
##inal
music
move
##less
wind
result
rev
complet
pos
2001
near
##ump
##작
ap
history
nat
watch
##stand
sit
national
win
により
girl
리
##으며
cond
progr
##ode
ann
business
doct
est
mag
##フラ
##ng
treat
##line
##토
looked
examp
iss
company
##ened
rele
##ered
health
교
##sw
##개
##co
##クラ
##50
##gn
##sh
##력
てあった
news
##ream
##프
exc
return
support
government
##aining
##ステ
free
cho
##ury
##영
heart
et
##ime
##elt
대한
known
フラ
となった
##ired
level
game
60
##てき
##본
##ains
blood
often
term
##에는
##학교
##물
##ipp
##フレ
live
##ared
37
went
##なく
prev
partic
##할
area
##uary
##ann
##bers
south
mill
ant
방
는
land
net
##ane
につ
##フィ
##oney
##ided
##シュ
bad
しか
##ards
##ᆷ을
##シア
##bo
190
##후
appear
hal
##ルハ
check
mid
##던
##되었다
우
となる
##ファ
hour
##운
##used
short
##ley
occ
##ション
ple
##방
organ
anything
때
##erc
link
lik
##っている
pa
isbn
00
hold
##78
ての
##スタ
ra
라
sat
39
장
##iter
##gin
women
##lex
##なかった
##ister
##200
won
asked
bit
process
##ats
은
##ption
important
무
manag
##ids
early
simp
incre
シャ
##디
norm
##ides
##dd
##iety
kill
rece
several
##enn
chang
aff
##ield
told
prom
information
48
fre
ang
white
interest
ju
vo
##by
able
lang
tre
past
##ラー
case
including
1999
orig
understand
김
##15
sn
##ency
##ote
로
##안
prob
kind
common
##생
step
##16
##oke
making
done
cause
north
doesn
문
along
##ーン
china
ても
##ーション
states
full
##onom
imm
##ウェ
##ll
##ither
##내
hk
change
based
phys
##ける
nothing
che
toget
polit
##une
together
##13
요
##14
maj
cert
リンク
현
##ony
answ
equ
える
##ird
door
grow
##que
project
report
내
##コン
children
##류
control
perform
large
opp
foot
##ering
film
pay
##분
sex
started
같
##ences
rad
##イス
sil
##oph
mr
coun
sym
있는
##ator
##ックス
general
##속
##iod
##모
##ured
stat
example
##son
##thers
port
##rie
##とも
남
united
##ele
##over
##チャ
doctor
doing
いた
##히
##노
born
189
##wh
##양
によって
テレヒ
sle
최
allow
##즈
##ready
hong
##록
42
christ
fac
tem
others
already
possible
1998
cut
만
human
getting
##코
##ried
##uce
にも
##립
##종
##통
##반
それ
week
ter
との
43
##피
ris
toward
##テル
special
bab
##ウィ
clear
##17
80
への
ps
meaning
##ことを
appro
##ii
##000
##ces
##ograph
##ying
period
kong
king
##까
curr
become
reach
pet
##ball
front
##ged
social
44
##법
fur
통
meth
1997
within
hi
##ᅥᆷ
##yc
alm
생
##ned
피
めた
friends
##それ
low
looking
##ーマ
mas
major
er
local
##ones
##ases
following
てあり
bi
##포
##imes
invest
problem
least
feat
super
view
money
##earch
enter
##ped
age
felt
않
포
##중
작
##リン
1996
wanted
wasn
##iam
research
auth
##부터
しかし
tv
ur
sour
##side
또
원
##yle
けた
추
##ホー
meet
hot
##られた
##キャ
quick
relations
##フル
young
##erv
desc
data
##oms
출
##par
adm
##국의
death
lim
##oad
##른
1990
service
became
##apan
type
##この
usually
ep
knew
present
##ech
##ought
arch
##arch
させ
배
##테
conn
##ヘル
파
##oci
##ued
probably
##ality
profess
##ced
pot
강
cover
story
ele
##ives
##30
non
everything
##yl
##80
esp
##utes
course
##ナー
##トラ
lab
educ
##られ
##イル
##ape
##ively
refer
hair
외
hands
father
46
##uction
dou
##ulation
dev
succ
question
actually
reason
##られる
70
song
fall
behind
진
seen
##지만
due
taking
stay
saw
##フト
##ese
market
##ために
international
enc
japan
party
associ
##oid
##aps
maybe
##했
##ended
half
given
1995
plac
funct
else
てき
bill
trying
eur
langu
turned
##por
##uff
##まて
method
##eth
##yn
colle
brit
##형
break
##uation
mother
アメリカ
##ories
stre
##ison
son
almost
either
series
wall
##ouch
##irc
pract
event
woman
47
season
##ted
dark
야
charac
##ians
certain
##aff
으
jan
success
five
town
##져
결
타
##フォ
##esh
##에게
##aper
##실
##ished
##atic
##합
55
aust
ける
불
mot
sun
##표
##キー
soft
##파
たった
##port
cult
says
##omm
bed
repl
deep
yet
country
##レー
90
econom
##との
##fic
める
instead
49
예
##ross
##fort
working
##ma
park
##itive
camp
##ラント
alb
road
##work
っている
sel
##ries
began
##aring
##ヒュー
1994
bur
キャ
single
##ars
##란
germ
##ife
##lished
##ination
##ored
months
vers
##シェ
activ
creat
##には
##book
##itions
yourself
strong
##aken
dam
##tain
알
skin
pi
##ances
##aim
rock
188
circ
cost
york
##ots
remember
const
버
##なり
##to
##적인
##sel
program
sleep
##린
believe
##マン
fire
##ルハム
##까지
##amed
close
##urch
분
##ことに
vir
반
mess
##ench
##푸
##フリ
words
##シオ
across
inside
##등
today
means
##설
##よひ
alth
##ータ
ho
tour
당
안
##icle
hur
##권
##pect
##ived
hon
relationship
##적으로
##he
##ler
soon
호
##れは
space
idea
mult
##발
although
club
とは
##クト
##ae
##ニア
oh
held
##ops
bir
##ᆷ이
500
swe
west
1993
access
##40
leave
##격
depend
##スの
##령
band
##iously
trad
において
##60
##row
##ization
계
heav
##ml
normal
office
cam
ファ
president
##ような
##ショ
hor
1992
##ilar
likely
##ilt
sometimes
##ument
deal
실
52
##ana
재
sent
voice
카
##ified
##ength
self
himself
text
foc
medic
march
collect
attack
church
vide
phil
##네
pick
##랑
flo
ティ
vi
building
1980
##ヒー
aug
##직
development
moment
##ract
설
특
include
unc
##천
##bert
##ring
invol
##uced
espec
##ney
##각
처
makes
jour
doc
えた
말
명
##umb
everyone
##rict
mal
##현
##aut
word
##rod
especially
chap
oct
author
further
job
fut
##テン
##me
mor
없
begin
##ening
ver
일본
squ
따
accord
단
eye
english
experience
いて
mass
pregn
##ether
infl
##ule
두
##カル
fig
매
##ron
1991
##acy
official
cell
##태
size
##ニー
##ハイ
slow
사용
##af
##임
key
million
comput
めて
학
##rew
にある
breat
##술
pp
addition
##のは
##イツ
ground
##ky
similar
minutes
baby
tot
##남
##두
summ
trav
rather
needed
##inese
hu
je
##70
##ソン
whole
##ression
drink
58
deb
repres
sor
wond
hope
boy
true
##급
について
chinese
former
abs
##승
rich
##cer
europe
hours
##ara
##ergy
##ief
green
더
##タイ
53
##go
gave
fail
phot
##ru
##ハン
rom
members
##ration
##rop
1989
web
54
couldn
함
engine
##かけ
なお
##dle
##ips
초
pan
##edi
arr
fight
tit
##ama
##ival
specific
among
clos
sept
isn
##되어
cop
please
comb
vict
college
sou
##ロー
sugg
lost
block
##uk
etc
애
mc
mac
coup
six
ii
suggest
##ᅦᆯ
piec
apr
grand
mich
ill
##료
gold
outside
##녀
page
late
ye
priv
トラ
##ague
dav
arg
なとの
tom
##ume
ident
pal
##orts
language
dom
##송
above
##ex
particular
learn
##ナル
students
ah
##ube
bene
ウィ
impro
according
jud
##ホール
##판
56
works
##ogn
pul
##oint
##oo
しい
style
table
##ental
##ᅦᆫ
における
75
##ivid
##석
anal
및
たち
받
##bc
##들이
##rit
dig
album
##クター
##ことも
##idence
avail
クラ
##ential
coll
##청
bring
august
##ising
object
1988
opt
june
##건
whether
##uses
wrong
hy
##いては
living
##ウァ
##fully
##초
needs
한다
んた
compet
final
##족
cross
##ox
##울
##스트
bal
search
##テレヒ
59
clean
taken
diffic
1987
99
exist
##oud
tried
quite
##ても
difficult
answer
anim
186
austral
future
ht
indust
fa
##artment
dest
env
dead
##브
종
われた
##アー
##하게
cann
batt
##osp
webs
heard
##ha
코
blue
problems
perf
center
matter
##론
##selves
##ての
독
dog
##しま
##ッチ
##bed
fill
hit
teach
##하기
force
command
군
대한민
64
source
65
##li
british
court
lay
neg
online
およひ
##ecess
ago
eat
cust
lower
hall
sympt
third
bott
##들은
とも
weeks
##タル
secret
##ており
create
jack
フレ
##매
41
happy
media
touch
track
anyone
september
##itting
street
station
share
1970
defin
account
box
##출
july
##25
##rect
회
cat
east
##ober
morn
coming
fund
##ternal
claim
##of
##idge
##리아
myself
ball
##ission
card
position
##hk
education
##면서
978
ul
april
##ンハー
match
entire
##フェ
치
68
##している
individ
##ᆷ의
amount
earth
init
october
mouth
draw
##シー
available
##ateg
january
##더
##ploy
weight
represent
career
society
##ティンク
treatment
log
hol
##ych
cream
champ
57
187
parents
personal
character
moved
##48
led
dise
ショ
1986
cast
cd
community
feeling
din
prim
タイ
##ウン
discuss
박
russ
crit
accept
tar
leav
운
police
prett
member
##ada
suff
##gar
##ature
review
avoid
이후
obs
mic
geor
##urs
##에서는
wood
##oon
한국
##ancy
62
pack
##함
##ンクル
video
##ients
milit
##mber
##ュース
##ᆻ고
morning
hell
speak
study
##준
site
##cm
drop
##らに
##ンテ
##yr
300
round
sold
##elling
field
すると
pretty
##번
fing
##ges
island
##コー
##thern
vill
음
##ino
saying
org
quickly
のみ
mater
instit
ach
energy
##itor
individual
양
san
##nal
##ze
となり
##ster
books
nove
1985
sus
estab
bank
sam
phone
struct
프로
longer
##dr
われる
finally
##atter
##スター
upon
dream
##ude
태
wait
november
mount
den
released
corn
gun
행
그리
##iron
cry
risk
##ror
fell
comes
base
##ンハ
##처
nav
##ティア
ic
value
century
##use
instr
december
gar
played
##ability
くの
##ことて
games
##ails
chapter
mix
されていた
##ux
model
sense
1984
##empt
william
##iled
##aughter
##ills
conv
constr
##lin
enj
##iding
easy
##リンク
##24
##ーハー
fav
63
##ify
##uth
sens
##icy
감
ble
towards
links
##aur
##etic
cup
yout
##dom
lond
したか
introd
참
spir
##action
##eder
##オン
변
histor
concern
external
employ
られる
##km
meas
다음
middle
der
color
##より
88
fear
##itten
##독
symptoms
mur
##ensive
fem
ライ
##ald
##입
##90
feet
political
드
とする
##where
ten
buy
##투
burn
grad
environ
award
##のか
london
built
##능
determ
science
われ
hear
##ールト
##ware
rul
services
beaut
##てきる
##ていない
approach
district
cook
aud
original
##unt
website
function
##향
##라고
compan
roll
cold
##년에
exerc
died
のア
##gest
mov
wouldn
technology
pict
형
fine
##ba
크
central
건
##22
simple
wife
medical
##았다
산
expect
1983
##ym
psych
れた
river
necess
exact
シェ
3월
fore
enjoy
paper
##ステム
simply
current
perfect
##される
chair
thinking
board
##병
##hi
mer
rout
##view
league
입
princ
##aily
uk
##ford
sen
alone
##olution
thanks
평
kid
cannot
히
mi
ran
1982
hop
##face
stri
mad
##iple
happened
왕
max
##쪽
##ography
applic
bow
##ルーフ
material
##라는
##질
scre
##anger
##lement
목
##による
##ウス
version
##istic
imag
becom
##yal
##aster
많
running
03
trust
##ael
##urity
nice
##ique
nar
##였다
##ny
##ᆯ리
football
##ースン
code
james
##ological
08
##ecut
##ett
##약
##iction
##23
てきる
##aught
##ケーム
fair
surpr
propert
##ネル
##량
85
sett
note
##ょう
사라
fast
lad
활
que
본
tur
##점
##anced
birth
forward
natural
tend
relig
のため
mach
arri
sorry
opened
county
rob
exam
##ューシ
66
send
##으나
pen
recomm
purp
##ica
##za
behav
##ij
hers
##쿠
issue
##uel
contact
custom
military
civ
scr
talking
フィ
적
##ius
tast
french
provide
cod
thank
けて
guy
01
army
##mb
regular
issues
51
##ledge
##sc
febr
1981
mis
broad
immedi
viol
deg
##レス
1960
attempt
attention
다른
##ogle
respons
journal
article
##ises
##언
##난
oil
##ヒア
kids
からの
はれる
worked
action
recogn
shar
##asing
##항
floor
09
##ili
february
##メント
environment
미국
##vd
training
##편
rac
loss
##강
learning
##られている
##fl
##ka
ready
shop
78
##ript
スタ
새
##련
focus
まれ
になる
network
popular
liter
safe
situation
##ocr
dry
##ティー
desp
##주의
##なら
しく
##アル
ある
##ming
북
##キリス
laugh
##pped
메
##aged
185
lunch
arms
drug
##집
modern
hyp
rail
agre
된
##tr
이르
1979
pm
computer
##ことは
path
되었다
writing
brown
그러
total
communic
sand
stra
##クロ
travel
##왕
총
##room
hom
##육
separ
itself
various
##ともに
##ᅧᆸ
##곡
themselves
토
role
##별
##ニメ
##シン
ハス
google
brain
##uit
counc
okay
임
95
du
##ᆫ드
##ーター
created
##ables
retrie
열
paul
##band
##ᆷ은
seemed
wes
##イトル
번
##された
##ugg
これは
spend
written
physical
같은
##ift
##배
ways
##adem
##itted
disease
below
##erve
표
decided
##츠
##ころ
mel
except
##된다
windows
higher
그는
たた
##とき
れる
named
considered
##든
published
radio
sir
nod
ban
##のて
bag
afric
##악
die
ce
98
continued
##usion
06
dan
possib
emot
tax
questions
베
signific
seems
##ena
위해
push
related
hosp
completely
にて
david
##され
##ping
##bit
store
received
アル
##메
##ンフ
데
facebook
민
musc
department
##トリ
っていた
##들의
##いた
##ches
150
##는데
speed
player
chem
ol
을
##antly
각
origin
takes
brother
visit
シュ
click
america
tele
host
##den
1978
results
##께
##osis
describ
##キュ
##28
##21
チャ
##agn
サイト
##iff
올
wal
##ホーツ
couple
##ルス
convers
##레이
zh
##なっている
subject
nhk
##body
コン
승
##ネット
esc
pull
fif
들
chance
gone
luck
cancer
##リスト
pressure
breath
를
surg
때문
##med
##ci
ess
mir
180
bud
jr
69
##ators
05
worth
##ケット
added
##되었
academ
civil
76
tal
ther
##ites
security
フォ
67
##amb
los
것이
##aft
##기도
ハー
stood
inj
pulled
tool
cool
かつ
##クション
require
director
followed
aver
council
address
##により
400
##アメリカ
##enty
12월
areas
07
##epend
##スク
ハイ
glass
경우
changes
##eding
73
ウェ
flow
##つの
german
##45
##복
respect
chall
brought
##lying
announ
fish
##トル
served
choose
물
private
##airs
walked
complete
##play
##haps
reading
##ᆻ으며
benef
alex
tradition
##결
file
programm
1975
##쟁
1972
##unk
1976
시작
##규
companies
offer
write
##션
earl
date
##iced
brand
##ハート
india
##베
ben
ox
##ded
##26
##ヒス
production
##zz
##심
prevent
population
dress
##light
지역
##によって
cand
sudd
##ires
fat
hus
##환
##imate
daughter
##irt
1977
systems
dad
ak
달
##ーロ
playing
sudden
1973
fit
professional
financ
independ
battle
##val
편
77
inn
디
레
sweet
さらに
increase
😂😂
##광
mart
pred
management
admin
##ya
discover
なる
perhaps
##ハス
protect
##시아
staff
kiss
##ほと
따라
master
##ners
##금
##key
happen
##ッシュ
looks
glob
##サイン
located
retrieved
stage
van
##atory
##oken
ital
##order
extre
##シリース
##ilities
##째
slight
04
indic
직
##ille
1974
##들을
html
4월
quality
reached
##oes
##ハル
dc
함께
correct
##うち
wish
##너
surv
##ホート
straight
drive
lat
세계
##케
sem
youtube
##ッカー
##99
und
thom
plat
ber
section
cyc
cred
청
range
spr
간
shot
influ
##なから
chief
continue
##asons
##ham
libr
standard
##ero
practice
smile
yeah
express
knowledge
item
사이
속
poor
##ッハ
##ef
##북
spirit
서울
캐
10월
##ことから
price
trade
선수
##ca
fresh
ren
regard
points
mention
ones
しており
##エル
daily
species
rub
##for
champions
onto
83
##목
despite
약
86
もある
lord
rate
##27
lu
ign
##eal
improve
connect
guess
87
internet
goes
plant
1971
ful
천
9월
##ding
jew
##ging
##ores
##등학교
lives
cm
rh
lack
영화
##astic
##com
moving
vari
kept
##ribut
content
##チェ
anti
##iful
herself
현재
##ground
##eter
achie
summer
fuck
occur
comfort
culture
74
##ほか
광
##itter
법
tor
シリース
センター
os
##추
michael
##ole
girls
included
##iment
drag
whate
eval
eth
western
1950
countries
association
whatever
1969
##ものの
piece
##망
또한
##となった
choice
##예
saf
infection
figure
gets
トイツ
##100
frequ
restaur
experi
stuff
km
##put
1968
warm
doub
##ein
##ラクター
##シャー
##サン
##ᆼ크
serious
##asc
02
events
집
title
##35
giving
##bur
##セン
sea
となっている
jes
assist
sounds
ms
closed
coff
prog
##품
##oups
sad
hospital
체
##ests
truth
studies
ship
##nam
##ipped
브
##いる
##ician
menu
항
1일
tea
indian
kar
exactly
96
stopped
amaz
##リーク
angel
존
returned
tas
nature
120
##xic
contract
확
##using
##aint
complex
##머
##hol
##onic
##ram
そして
scient
george
xd
られ
##vision
gas
##oring
epis
##ees
##aced
kore
わせ
products
7월
prep
heavy
disapp
##la
##sequ
thus
neck
image
##てあった
democr
##ros
involved
wonder
extra
##ga
execut
foreign
growth
89
##omb
##pper
##페
condition
97
threat
##애
##wor
##らの
##ension
cases
えて
##cent
##load
##チーム
immediately
##하다
window
eventually
61
자신
exercise
79
##んと
とした
launch
married
##ification
외부
groups
reb
husband
##ライフ
cit
##uf
##apt
1월
vs
##izing
##29
release
counter
hurt
resour
chest
fort
royal
opport
たか
たたし
eight
capital
##하며
삼
##これ
lock
##하지
changed
muse
##hib
union
stress
syn
ice
emp
effects
##タン
##커
##ining
particip
region
opportun
##33
easily
2월
records
obv
조선
hen
##hood
wild
meeting
5월
8월
1945
jer
surface
screen
train
##スコ
concept
##황
prem
dut
##ホン
##にお
かあり
economic
demand
fix
killed
generally
フル
##외
rights
1967
84
industry
##이며
11월
bey
##ッツ
diet
math
かった
##씨
##アルハム
decision
워
##림
yell
ba
##arily
carry
places
##aries
##ologist
##にも
##イク
##절
채
cy
6월
causes
##ji
##tv
##근
seven
caused
evidence
parts
##pm
remo
##らす
##たった
##ヘーシ
##かある
positive
adj
mob
##cast
proper
global
##onse
wid
##カート
##ウント
##bl
フランス
rose
mist
stock
wide
ヘル
feder
フェ
peace
##roid
##ッシ
beautiful
repe
##アン
##eless
decl
##レン
gard
beat
race
bes
##マー
##ルの
##ヘース
금
target
length
necessary
なとを
sort
##back
##ニンク
strength
movie
투
save
interview
##36
##겨
##달
types
franc
하나
stick
robert
##enced
##kn
##mp
pregnancy
きな
repub
##ceed
tel
##なとの
comment
##my
ord
lift
##ki
링크
shows
##xx
##색
prior
##いった
frank
hang
##sp
danger
することか
japanese
bottom
72
pc
lou
##カン
패
sar
##icles
purch
##iny
##cul
##fri
trump
response
financial
grab
spread
sports
user
village
ip
##コート
dvd
축
##mer
cloth
복
wants
performance
coffee
therap
ens
flu
washing
slowly
##ようになった
movement
tow
average
starting
##とは
をも
##oe
finished
division
cath
ton
fest
##38
としては
뒤
descri
digital
strateg
beginning
surgery
il
창
##board
peter
leaving
aren
##シャル
diagn
rid
expected
tear
produc
terms
select
basic
##온
##olf
deliver
##rian
##ari
당시
property
emerg
또는
agent
sell
##トロ
passed
1965
allowed
guard
わり
らか
dish
##이나
##스의
kh
meant
1966
##リオ
증
attract
황
leaders
document
##글
jump
beyond
fle
software
prefer
spot
##friend
국가
altern
ath
goal
earlier
wrote
1964
television
##wood
hun
가장
anc
seek
##たか
때문에
hous
hund
##anch
판
트
administ
94
throughout
##はし
##iot
appeared
multiple
##wise
standing
##bor
그의
consum
republic
required
potential
させる
waiting
##철
##eness
##평
iv
european
られた
therefore
철
seeing
developed
になった
##サイト
または
##っていた
oppos
egg
##inary
からは
heat
##견
policy
sister
##まま
##iling
hundred
##とする
appoint
##ades
print
double
pregnant
dinner
student
gal
message
##set
bay
wik
seat
australia
##reg
##omp
tree
##gress
##되는
백
コー
theory
transport
inte
##쳐
##osh
trou
たけ
museum
프랑
ham
levels
gall
rap
magaz
spent
recommend
england
##raft
としての
##inct
investig
184
ut
합
impact
features
compl
capt
##era
##va
dim
respond
##축
tight
championship
##iers
티
gh
같이
quiet
bull
worry
것을
ホー
##acher
mary
transl
##퍼
calif
ts
veh
언
consist
library
##aker
placed
##dy
hung
된다
limited
##olic
difference
##37
quar
##cd
충
##come
breast
rain
directly
##vert
##ibility
cas
##기를
##ously
gi
##itis
remove
californ
chann
##aled
##aign
christian
##inated
##istry
에서
##기에
심
reve
##ette
healthy
##ss
favor
bul
kr
1963
##fc
##범
established
suc
##199
autom
##nes
partner
emb
그러나
adult
legal
nearly
catch
commission
##itely
ray
hill
stone
##ta
sales
lie
rule
td
unless
centre
##ントン
pu
루
##ンシン
##88
sup
numbers
키
thomas
ability
위치
##リリース
##oted
structure
##34
active
역사
##찰
soul
blog
##ocol
female
##ースト
previous
기록
install
sin
##riage
produced
pow
huge
colon
lines
corpor
##cious
1000
currently
ga
했다
플
##itar
campaign
##atives
대한민국의
finish
pd
##ella
neigh
##ysis
smiled
california
##イヤ
billion
##에도
jm
schools
progress
##rupt
firm
##럽
destro
minister
teeth
ケーム
1962
jun
##キンク
##セル
memory
eating
かあった
surr
##なって
luc
leading
apple
については
raised
harm
temper
exch
novel
##berg
##more
rules
forces
##탈
##ロン
worse
##rief
shr
notice
##ものてある
##たけ
##スヘ
##39
canada
degree
##ety
##uments
##32
mech
살
있었다
conditions
si
activity
##oses
##とう
subst
근
##75
voc
##ヘント
associated
##wards
sitting
의해
chick
effective
활동
election
vac
described
ない
##istan
##てあり
##열
patients
##また
letter
haven
mut
anx
네
fb
취
weap
affect
##ested
direction
thoughts
##ousand
france
ウォ
##ini
sky
reported
roman
160
coach
것으로
thousand
codice
machine
アルハム
##men
##aces
distance
##창
jose
lin
600
##への
holding
opin
recent
まれた
대한민국
jesus
crow
##イント
stom
kbs
용
spl
##ey
older
못
##리는
권
にかけ
##ference
##iation
しない
##ura
82
dar
location
pap
##습
reasons
##험
1940
##bing
1961
##위원
significant
##och
##apped
##ウォ
##라이
##희
edge
primary
점
contain
ring
ult
wil
shall
shut
designed
##aked
lose
##랜드
negative
surround
##シースン
아니
##きた
collection
acqu
800
필
flight
growing
wear
shoulder
##de
##off
react
할
cele
poly
trip
그리고
liber
forg
taste
まれる
lived
##칭
nut
##タリア
##ban
behavior
strugg
leader
tbs
depends
##itation
cab
slightly
suddenly
pros
イン
platform
##ラス
officer
wed
110
81
absol
da
##지는
##런
whe
##oles
picture
##ora
～～
##85
stories
##탄
institute
##극
##64
のち
lady
아이
trib
71
reflect
테
##ita
restaurant
フリ
##ims
ram
병
legs
##imately
caught
susp
whose
subs
sect
shoot
smart
tun
##oh
쓰
##ucted
lee
option
opening
span
recently
돌
##ander
disp
##oma
honest
hadn
##かか
purpose
display
게이
연구
weak
bath
rand
mechan
insp
whis
join
constit
mun
horse
##ミー
##edia
##ago
walking
tra
##aling
##ellig
na
##lam
##ih
announced
##gy
さん
##erson
activities
mostly
mine
fm
통해
##cl
##arm
minim
1959
##ます
via
1958
corner
bound
damage
bac
완
doll
##ogen
##ien
##aves
gives
joined
있으며
occas
pattern
players
##シンクル
qual
knows
##ミュ
definitely
##ヒック
provided
##ropri
male
committ
##されている
2020
explain
##ハント
thick
details
##것
transfer
##itect
ta
クレ
understanding
##head
##앙
pac
スヘ
##itude
뜨
yu
celebr
successful
thro
names
##ns
extrem
##ipe
les
클
##oz
charles
ハン
순
##ault
washington
りの
listen
lean
##ルク
##leg
joint
독일
covered
##65
jul
##していた
temp
options
architect
##ida
confir
##ivity
cp
ideas
방송
shad
defe
alco
magazine
##atively
졸
kitch
professor
spring
##ession
1930
1956
アン
northern
##phone
##iday
stomach
asking
##ato
##ろう
##ネス
includes
##onstr
steps
minute
sexual
##uated
##ville
イキリス
anyway
손
traditional
の2
additional
southern
fingers
helped
apply
하는
helps
guide
edition
사람
1949
##reek
assum
ahead
アー
1955
conversation
resist
resources
##eed
unit
##リエ
##igr
alcohol
##ニュー
##는다
metal
switch
users
##iles
plus
upd
kick
watched
##ヒン
appar
サン
##77
encour
##ところ
watching
none
##カイ
푸
fc
nic
iron
ウァ
##ucle
volume
intellig
##웨
pun
##례
##ーカー
93
1948
##ano
appl
##널
dance
##aging
92
##カッフ
1941
feed
の1
easier
##hold
##bour
にあ
されて
##rael
manager
##졌다
agree
captain
##tered
##da
minor
increased
asia
frame
ended
##isc
アイ
1944
250
##백
typically
첫
##hen
チーム
uses
##66
규
われている
##elled
lips
particularly
##field
##gen
##ための
##につ
##モテル
뉴
organization
background
wel
만들
1957
##ᆻ던
ven
bt
사회
##vey
サー
square
beg
remain
interesting
것이다
mission
lic
##어나
⋯⋯
paid
fal
スト
##ᆨ스
##ils
##ヘン
measure
rank
shit
こう
##살
ax
대해
plans
##リシ
ニュー
##bon
##サイ
페
application
sched
publish
freed
overall
##amin
##책
gather
filled
fold
##いは
larger
많은
lif
kitchen
unl
##ques
israel
##モン
##itz
##ライン
##utions
##날
##azy
んて
charge
##변
##yth
オフ
germany
졸업
sick
bright
reality
##vin
##kg
knowing
fully
들어
scott
neur
죽
tab
happens
teacher
detail
cafe
ash
coast
ru
skills
##68
electric
flat
2010년
suit
load
##ios
construction
##gl
loved
richard
ordered
##ちゃ
##クレ
laws
するか
##ship
relax
##순
##こう
##리를
130
##락
prison
pair
머
upper
murder
smith
destroy
##ハラ
fer
independent
1954
boys
om
179
festival
pad
telling
dat
##りの
map
##isions
percent
greater
##orrow
safety
##55
nodded
recover
uns
forms
##ワー
포함
effort
solution
australian
consult
pin
formed
##owing
1947
od
kingdom
committee
hotel
##되고
정치
##ルフ
##대학교
##isl
##テサイン
qq
lake
##にて
##ici
pieces
milk
준
##となる
##つか
##arr
##icip
뜻
ib
のように
システム
victor
ly
##iance
##gu
91
##mas
니
arts
brief
forced
170
controll
##ston
vision
guys
analysis
높
piz
episode
otherwise
magn
##ムス
は19
##irty
가지
わる
gaz
##활
##ムの
amb
sugar
becomes
##istics
foundation
1942
index
ss
##44
empt
##ないか
shock
removed
operation
moon
##craft
broken
スホーツ
bridge
なく
jim
허
largest
henry
1943
1953
105
##rel
1946
cells
pray
cris
nation
paris
becoming
certainly
##rom
supposed
다시
feelings
##しい
advice
##isf
##ᅦ이지
offered
clearly
replied
sac
##ートル
##とした
##존
closer
##otten
learned
asp
mental
samp
##획
increasing
1952
2011년
sharp
russian
smaller
federal
##봉
email
awards
##ooth
러
クロ
serve
nom
tests
##well
이상
のために
140
##enth
silver
grant
홍
##ートの
speaking
electron
##lor
executive
nucle
1920
##대로
##システム
##쓰
showed
ov
ry
commerc
shown
여러
##ris
bod
##チュ
ai
##ーロッハ
##antic
queen
princip
##감
##erved
images
##くる
faith
route
highly
친
끄
philos
##ophy
thin
bon
##テオ
harry
nose
pil
implement
##ウト
tong
labor
credit
meat
remained
##レーション
다음과
##86
vit
achieve
きく
fi
conserv
##31
reduce
citiz
twenty
establish
originally
##증
##ray
perm
songs
regul
월
medicine
##fs
prec
chicken
ホール
possibly
1939
clim
##iverse
expert
sund
모든
かれた
channel
##ements
##icient
##플
##mon
##ams
mexic
notes
bond
marriage
finding
マイ
도시
throat
status
##wan
とともに
##니아
mobile
interested
##ufact
clothes
##まり
produce
##retch
characters
アニメ
2008년
yellow
2012년
있었
##てきた
manufact
humans
forget
2009년
acid
powerful
mos
allows
occup
trouble
mail
noticed
keeping
continu
analy
ホーム
중국
1951
##켜
101
therapy
trial
배우
magic
compos
variety
##ev
##uate
##ラシオ
determine
##rd
えは
かれ
apart
treated
##스는
tall
remind
##ケン
cu
separate
appropri
doubt
##47
adop
##ワーク
##ending
##aine
##즌
##일에
depending
statement
studio
theat
##eg
items
されており
core
##슬
まり
farm
decide
arrived
traff
##others
##mar
aa
##abor
canad
categ
economy
sides
##ala
クルーフ
projects
tap
az
dyn
##urance
##혁
のもの
##たい
##メンハー
iii
##トン
candid
bob
aware
##idents
##oper
위한
まての
gri
attach
なとか
##テヒュー
integr
shape
##ヒット
##キャラクター
々な
경기
patient
논
ステ
##ola
critic
##69
pizza
managed
##ava
flash
religious
큰
causing
bell
문화
hey
opportunity
##nel
##슨
##협
setting
##ria
1st
flor
dip
tru
famil
##ushing
##ua
cn
모두
creating
twice
##박
border
scar
proced
##ᆻ으나
senior
108
advant
すること
##ias
##하면서
gain
##porary
##box
##gb
##49
##さん
##のみ
extremely
stream
##ustr
##すれ
php
##그래
wing
programs
##틀
환
willing
tick
motion
seconds
##fr
##iest
cart
##혀
3d
imagine
exchange
muscle
artist
##シタル
##ender
clar
handle
rise
이러
useful
scene
##fa
##ことかてきる
clin
##rial
tai
wash
식
airport
sport
##eds
winter
veget
##iving
##トイツ
##택
territ
fu
フシ
##oom
이용
feels
commercial
eastern
전쟁
너
animal
##로서
125
legisl
nick
sav
fighting
flav
values
させた
pleas
scream
aim
justice
enem
performed
축구
##lo
task
virt
##inate
las
planning
garden
보기
speech
대표
goals
ros
とし
promot
reaction
shook
##ーシャ
##ete
##회의
register
spoke
##アイ
severe
##こともある
anth
アシア
appre
국제
##sey
operations
jac
##89
##anda
##79
interp
fly
leaves
##통령
##ーフン
##スは
whom
##pping
##ribution
のオ
feature
sight
##igned
bc
##센
##ek
일부
##wr
미국의
africa
##フランス
2014년
のうち
animals
##럼
asse
opinion
twitter
wound
##aped
2013년
온
の3
medium
anxiety
rot
interact
##レット
guitar
##사를
dropped
fol
conference
initial
confl
majority
completed
##time
rat
2nd
reference
れて
button
##umn
forest
のような
finger
fab
##edy
agreed
웨
rice
vot
italian
competition
terri
mont
まる
trees
elements
정부
chic
##보다
##턴
expand
##チャン
bs
wearing
graph
chemical
##che
compared
##ウム
##ひと
##シェクト
founded
##라마
tools
##arian
evening
700
presence
cheese
##막
##자가
visual
believed
##クルーフ
128
congress
planet
vent
writer
2007년
iphone
##izes
actions
fans
##orial
challen
##oking
いか
solid
##コール
hd
element
diss
aircraft
merc
virgin
일반
nine
하였다
snow
fan
##ていく
francis
설립
teams
compon
##개의
구성
##ighter
lots
음악
liqu
##isation
sequ
actual
mentioned
mountain
sources
workers
まった
cycle
##리에
1937
##iger
##받
desk
##テーマ
##했고
pill
##46
##ani
communication
のハ
영국
concent
##ko
signed
##ヨーク
prime
##름
cultural
fash
spanish
##76
beach
공식
lam
profile
yester
##たり
failed
crack
entered
##ields
families
##ona
あるいは
##elly
ancient
프랑스
1938
##상을
cake
##클
oly
##대의
african
marc
##zy
wine
engineering
##テュー
revolution
##리스
paint
dangerous
freedom
175
##フの
존재
provides
realized
academy
##pa
##gs
sauce
instruct
から19
##ーナ
quarter
comfortable
wave
mbc
##それそれ
##ijing
louis
arab
わった
turning
buff
チェ
height
블
nas
bowl
てあるか
そこ
bone
##リシナル
알려
으로
dcard
##ソフト
colour
##oul
stretch
putting
##raid
문제
##디오
empty
yesterday
##성을
mv
##しく
expression
ensure
prince
investment
##bre
##リンヒック
wer
cash
loud
alt
##シャン
대학
mm
1936
##セス
##ache
##lus
rough
##ja
stars
beijing
##クス
scale
antib
mort
responsible
##アッフ
cos
られている
limit
partners
##ッション
슈
parl
maxim
motor
교육
olymp
contribut
##んな
제작
즉
##しまう
ロー
tex
##ケル
smooth
methods
😂😂😂
##지를
native
별
##패
##bol
exhib
スーハー
recorded
scen
##ania
##장을
quant
いる
##ースの
육
canadian
협
gent
##agon
##시키
ded
##ホル
files
##hy
receive
protection
관련
download
##emat
윤
historical
testing
satisf
presc
ミューシ
entertain
mainland
bat
challeng
##블
depression
script
picked
##위를
##ket
##ext
대통령
cities
##aming
##ipping
##iliar
c6
belong
martin
crim
daniel
gon
valley
afraid
가능
fashion
newsp
##ulate
농
##oft
remains
calling
broke
115
사건
라고
##어진
fourth
judge
dj
russia
えられる
ラシオ
##스테
concerned
##릭
등의
##ums
device
rare
transform
oce
authority
tears
##이었다
chee
감독
individuals
##トラマ
새로
アント
supply
커
2015년
##ーの
##encies
##ゅう
##거나
##bi
##ota
##ressed
bol
rib
bought
이루
##하였고
##ラム
개발
hate
tan
##mark
##ールス
patr
influence
chart
けている
conflict
famous
##ushed
ション
##불
cars
pdf
tro
wit
religion
bleeding
##ニュース
처음
grew
elev
boss
fant
assemb
##iring
##illed
editor
broadcast
##マイ
golden
kim
##혼
micros
protein
##ーリー
109
ing
##ionally
truly
tooth
examples
previously
arrang
pure
korea
unique
listed
trail
##htt
introduced
らの
shirt
##illa
겨
constant
##へき
길
##ᆷ으로
storm
mp
stated
signs
cs
benefit
##ado
medication
##ヒル
factors
challenge
directed
traffic
trig
sant
hid
dial
されたか
au
cc
##entially
##burg
##ヘット
##ocket
##스터
송
parent
chocol
##down
income
いている
##けれは
##도로
😭😭
dent
##のに
demonstr
appears
##기의
bang
##もと
vert
##kin
missing
numer
changing
##vant
debut
equip
balance
driver
##すか
topic
##アニメ
ハント
##utely
annual
##42
contains
secretary
##king
elected
railway
adjust
carried
advanced
crazy
random
においては
##킨
appreci
costs
mand
マル
joseph
basis
##wa
liver
pages
dna
mode
lip
worried
##때
row
disappear
##말
##とされる
customers
accident
##レイ
##ウェア
knock
whisper
decre
##나라
것은
カル
1935
salt
##벌
にかけて
オー
##도의
##ingu
##eline
##이는
imposs
spect
assess
cham
##unately
driving
smell
##덕
##つけ
crime
flag
poll
string
##슈
##kyo
##do
schol
いに
arth
bear
instance
drugs
lung
##like
2006년
##이자
zero
appearance
ka
있어
vag
approx
끝
alive
##67
strange
##イキリス
けられた
functions
administration
걸
foods
##han
##ales
##かり
critical
mrs
##yer
parliam
transm
##ッセ
youth
prepar
##たる
miles
##ウル
asian
calm
##ancing
somewhere
aspect
##osph
holy
폭
##자의
appropriate
eld
plants
copy
いの
requires
matt
##력을
crew
##총
owned
##iang
ここ
ライフ
rang
obviously
トラマ
aid
pink
##テューサー
starts
##クリ
ast
amazing
winning
trick
usa
purs
replaced
ment
나타
하여
フラン
scientific
##エン
benefits
##isted
##ira
empire
accur
받아
##ᆼ글
stup
104
tiss
parliament
calcul
165
メンハー
walls
tokyo
agency
pushed
##gi
pacific
runs
bacter
자신의
teaching
surprised
2016년
##how
compar
##ager
モテル
penn
석
178
しる
stepped
jobs
##esis
##ものか
laughed
realize
ng
surprise
1933
##キシ
1934
mood
jon
##pective
buildings
##クラフ
##ートを
##헌
bbc
##누
시즌
weather
##ented
carl
calls
islam
detect
앨
검
rapid
haw
##char
155
failure
reform
connection
prepared
극
てはなく
118
sunday
##이고
generation
carol
##부분
##cend
ロシア
##층
christmas
consequ
honor
politics
adding
々の
pour
##icious
맞
##ez
sbs
equipment
bh
홈
##センター
##손
볼
##そう
これらの
##force
159
label
glad
complic
##72
teen
글
description
##なけれは
physician
pictures
atl
전투
날
absolutely
tag
concert
teachers
bor
##win
##리즈
##orter
##しか
anymore
tomorrow
injury
##works
フシテレヒ
surge
##オー
temperature
##ことかある
plastic
していたか
neither
highest
##이트
##ラク
joy
줄
##awn
##house
##kend
##rier
168
シン
##メーシ
butter
##azz
impossible
##ミューシ
thor
シンクル
ハリ
shared
##74
units
##접
1929
hihi
appointed
##ulated
##td
##いわ
sigh
agreement
chocolate
sword
accessed
##odes
pointed
##フス
##くり
##uries
wet
classes
##osing
sov
##착
languages
##さま
앞
intelligence
dun
135
##ナタ
gab
hole
폐
향
テータ
##スティ
shouldn
##トゥ
##응
worst
##aded
##uts
##특
##omfort
showing
equal
ger
vehicle
シースン
unfort
1932
たと
##elle
expensive
これを
##サーヒス
면
turns
hello
##illy
gate
##73
##リティ
pool
youn
unf
프로그래
domin
##hr
##ᆷ에
rod
##すへ
##ao
soldiers
いを
tone
りを
angry
119
##징
등장
##하면
coc
귀
programming
perman
1928
hearing
context
musl
##ked
##oster
관계
1931
fd
athlet
##okes
のある
biggest
discovered
synd
wheel
##あって
발표
diab
라는
출연
ヒル
##ugged
evil
ae
insurance
ヘン
chain
subm
##란드
##tained
のス
favorite
##년대
horm
##친
charl
films
request
##돌
##득
datab
stupid
##ker
tiny
lor
pier
opposite
へと
효
はれ
##43
familiar
tired
poet
owners
selected
##ほとんと
インター
catholic
##cing
pound
제1
トル
リーク
없다
attend
indeed
のカ
theatre
##기가
subsequ
escape
mah
initi
weekend
fruit
##ニック
アナ
##iy
dur
といった
desire
photo
にあった
navy
##ことになった
mole
android
##학자
##ールの
ride
이는
hide
chicago
materials
접
grav
이다
잘
##word
のための
103
pitch
##ema
losing
주장
province
##んし
tells
이러한
トゥ
102
headed
younger
advantage
contem
wake
vote
##bridge
##oned
narrow
profit
ハート
##rey
지방
incor
106
soviet
ped
shout
circum
##이었
cere
mixed
terror
phase
ソフト
maintain
capac
##レンシ
grade
##iano
tonight
##hab
jam
acting
evolution
제2
audience
##ーツ
stared
##ならない
##도록
##からの
##awa
수상
##een
158
bread
marketing
articles
hero
reven
nerv
발견
electr
brothers
같다
tum
witness
excell
👍🏻
introduction
##ンは
favour
##ction
uncle
밀
checked
##훈
applied
stan
branch
meal
chan
##とって
기술
models
##찬
nuclear
server
universe
2017년
##フライ
1927
##측
predict
texas
##sa
helping
##인의
자유
##iques
##kins
technical
hind
##エンシン
cin
batter
ocean
internal
circle
쿠
そのため
pak
distinct
##urt
connected
##agram
sites
nations
unable
경제
##ークス
excess
##cop
relationships
##ruct
누
cow
##리카
##남도
##41
util
drinking
defense
##せる
##ニス
mcc
##aka
defined
sev
カー
align
plate
classic
##먼
##써
##col
mike
てあったか
のフロ
estim
advert
evaluation
conver
##fast
발매
restrict
なとに
공격
medications
explained
bomb
하지만
##road
##ヘラ
설치
saint
##フレー
##osen
anger
하고
purchase
2005년
britain
answered
entertainment
##gor
##bal
ko
flying
##レース
satur
regional
##63
citizens
##クラム
journey
##ていたか
##estic
planned
되어
clot
##위원회
officers
マー
cock
carefully
decor
taught
hr
forever
동안
##ライト
えられ
이전
##ogue
cooper
faster
##ンコ
##ifying
wire
silence
ハル
められ
##시에
ire
엔
advent
##vi
applications
맡
##ていった
usual
##athy
organiz
##らは
##チャー
갖
blind
しては
bass
최초
ken
##isters
##71
letters
1925
grabbed
##っと
answers
collabor
zeal
reports
며
bird
##rid
obvious
shel
##리가
hydr
fried
diam
##jo
tech
의미
bodies
remaining
basket
##62
영향
boyfriend
곳
1918
clock
##right
ends
focused
학교
entry
にした
developing
##asm
주요
##ランタ
totally
##픽
conduct
##ミック
등을
helpful
のコ
はれた
liquid
definition
アフ
allerg
てあると
conscious
infect
밝
일본의
##emon
##대학
normally
이를
138
suggested
운영
こと
##ashed
municip
tail
resol
まては
イタリア
reject
alternative
はその
##서는
wan
mini
chris
막
industrial
existing
emotional
joe
ニュース
책
efforts
wealth
1926
owner
ft
시간
oxford
governor
crowd
innov
ay
1919
かる
##eme
##률
のホ
monitor
launched
sets
nearby
##rome
##ario
hem
りに
したため
##サル
weapons
##기는
dear
objects
##들과
forum
spin
##テータ
pig
ech
##メートル
けられる
1924
squad
담
##フレイ
ハラ
##において
gay
entr
happening
sci
ml
raise
mond
##セット
##don
steel
aftern
jean
jeff
##95
곡
format
##やす
imper
##초등학교
offers
##otic
행정
chairman
tongue
중앙
busy
eu
번째
greek
root
honey
드라마
##ハック
btw
score
##ompl
##atically
##マス
##アナ
sab
disorder
##담
지원
##lusion
##군의
dragon
grin
actor
sr
andrew
relatively
##성이
##オフ
2018년
ot
officials
lit
hat
##념
145
봉
boat
swim
게
zone
americans
발생
fever
false
##세기
weren
##カテ
tam
1914
##タウン
1923
factor
relief
##しまった
viet
throw
することを
##タイトル
イント
게임
tay
proceed
라이
kenn
plays
habit
seriously
우승
manage
##ラフ
##ses
##로부터
depart
##abeth
##61
sale
진행
##imp
##ゆる
vice
##はしめ
데이
##レクション
impl
러시아
##ila
basically
fellow
##リック
##ati
temple
헤
thousands
symbol
##ᅦ이션
대부분
castle
##よく
##くら
##ishop
えられている
##サート
ると
lights
emergency
##ほほ
이어
인구
##델
sust
##번째
missed
serving
けられ
strategy
사망
beauty
1922
ラン
절
##んた
orch
するため
ron
taiwan
artists
##てはなく
musical
##렌
extended
##ece
waste
ireland
eliz
liked
grey
rab
noted
##ケート
##レート
apparently
##enger
##iat
##lands
##マル
camera
지정
##ho
budget
accepted
writ
##asy
orient
victory
catal
cla
operating
##osure
##ことになる
numerous
107
argument
grass
breathing
experienced
dism
kat
독립
##メラ
##マーク
shoulders
friday
studied
plenty
のこと
작품
input
かない
killing
##필
좋
adam
##イヤー
initially
##クシ
interpret
##문화
##로는
##iana
등이
philipp
entirely
sod
##たち
hans
##ものて
blank
##カス
damn
alph
constitution
ユニ
obl
intel
intended
##골
prize
behavi
xdd
sque
shoes
##uch
afternoon
breakfast
をする
doctors
리그
##버지
falling
chronic
instrument
bottle
unkn
변경
cheap
estate
ネット
identity
##no
optim
ny
cloud
parties
##gend
##우스
##닌
urban
astr
weird
irrit
##cr
2004년
recommended
observ
cha
##とめ
friendly
するために
orth
antibiot
중심
allowing
ig
careful
underst
commonly
##enses
essential
claims
literally
##ちゃん
결과
repeated
dust
creation
presented
サッカー
##apore
##ᆻ지만
democratic
##aks
mathemat
##ケスト
얻
gift
##명의
somehow
クラフ
고려
サイ
suppl
bm
##ホット
##ヒンク
##ウンサー
##resp
##omy
cards
##rim
##stein
bigger
biography
thx
##리의
jewish
comments
split
barb
마이
fixed
properly
edward
스타
elim
139
guid
##느
survey
afford
polic
frequently
era
historic
canc
plot
identify
heaven
zealand
129
##ソート
mexico
##ologies
1900
nobody
shif
##net
sed
wolf
customer
doors
1921
cant
singapore
inflamm
properties
かな
クリ
smoke
experiences
##ᆻ는데
##ソンク
cabin
hp
houses
##자를
##under
쇼
ministry
##lines
##ヒュータ
범
##born
##므
##뉴
갈
besides
##teen
gentle
tough
buck
secure
ow
##억
##정을
burning
##イヘント
よりも
jones
148
gently
lying
169
##pe
stuck
##ament
##길
replac
サーヒス
생각
められた
##ミュニ
muscles
になり
##람
##bel
##aki
이에
noise
inner
dub
disappoint
이탈
supported
orange
##들에게
アク
암
motiv
proof
##スカ
##uma
유럽
attacks
creative
photos
##율
참여
타이
탄
nik
111
かり
soup
describe
ali
##ユニ
수도
sleeping
shan
references
aside
##erves
academic
##night
georg
cens
1917
##verse
##owed
specifically
##ls
standards
なとて
sharing
##링
##しょう
부분
##aya
##akers
unfortunately
난
つの
##늘
로마
テシタル
ター
##rative
##시켜
wat
dedic
diagnosis
##엔
database
cryst
singer
layer
##かい
##リーン
##キン
draft
##uations
아들
질
atm
dogs
aer
mainly
breaking
environmental
employees
##룹
ほと
##사가
##isher
literature
##스타
##ハーク
##ラル
korean
360
##ものと
필요
waited
von
##フルク
advance
combination
##とともに
##했으며
barely
scot
selling
인물
##ワート
featured
##흥
silent
referred
tip
highlight
enemy
기준
odd
painful
정보
vel
cub
violence
pod
tu
hip
wis
lucky
hes
##aved
tournam
##インター
upset
##セント
crown
##umbled
appeal
incred
##シック
tower
irish
beside
continues
##ナイ
vess
powers
112
bern
gig
dynam
leadership
fields
사실
##athan
rein
3rd
assistant
intr
##ッカ
##uten
어ᄄ
の19
##idae
handed
promise
knee
のサ
##프트
##자는
trend
determined
##므로
##ラスト
えている
##asp
##ami
##つつ
##ミア
그녀
터
spending
tank
##war
##まての
prices
ending
혼
##oji
##とり
##essed
manner
##uing
portion
publishing
han
##gers
##ッス
commit
repeat
leads
となって
149
えられた
legend
anywhere
pocket
stor
##berry
providing
aj
passing
##インク
assume
##객
tang
stad
unknown
fox
##anth
schedule
capacity
sum
swed
새로운
nerve
illness
italy
##연구
##およひ
braz
は1
##ico
탈
mask
##uits
discussion
raw
output
rates
##ロック
##mann
1910
##도를
##ortion
passion
んている
alle
시대
agric
pear
사랑
resc
lol
shell
##에서도
gn
##ティスト
##inger
かい
##rison
existence
pra
##었고
prove
특히
##レント
mol
측
ヘスト
cass
claimed
それそれ
concerns
hidden
funny
salad
meg
fault
##http
##sl
형태
##풍
approximately
いられる
にわ
##iform
##ものを
fib
abuse
gov
elizabeth
lap
illeg
valid
ni
다양
wars
##인이
##inent
##가지
##익
##ensity
baseball
neighbor
thy
##사의
update
assembly
1912
##ᅦ이스
##ーサー
になって
이것
sample
yah
unlike
regarding
massive
##oked
welcome
##inity
signal
affected
##균
テイ
##ched
##sen
nin
##밀
nap
##con
##gment
shopping
##맹
greatest
climate
tissue
인터
secondary
marsh
steve
경상
mg
cough
carbon
chosen
fucking
##ester
rar
せす
잡
mild
domestic
rog
のエ
fuel
##orders
shift
sher
brush
sd
distribution
begins
악
param
tenn
agricult
assets
gro
spiritual
あり
newspaper
bron
earn
##har
aband
responsibility
devices
##here
lind
テヒュー
emph
emotions
113
けの
##igan
edit
iran
fo
till
급
crisis
bun
islands
dreams
apartment
##gypt
ingred
キャラクター
ghost
microsoft
##랴
##ウェー
angeles
absor
decisions
mit
##북도
plane
wow
##かつ
つく
latest
cav
techniques
レイ
beer
unp
propos
##sm
drama
ears
##ela
bk
##urally
rum
delay
confidence
##리그
acts
shadow
moments
##rees
##ットの
##년부터
housing
##퇴
movies
forth
골
anne
##レク
たちの
understood
jackson
medal
combined
이탈리아
##pc
periods
폴
hay
350
procedure
へる
##umps
hors
##etes
##enz
##되었고
めている
ships
revealed
##について
##iki
##lar
stim
views
egypt
##roll
oral
lies
114
gender
##자로
birthday
loop
콘
ell
proposed
なか
syndrome
##west
bother
출신
simon
##acks
##cy
##머니
kil
##asty
unus
##효
pret
##onym
talked
##inn
인해
##ription
##ui
fool
ct
shower
##isa
truck
gang
dram
なり
paying
follows
encoun
기타
##ッサ
sty
occurs
whenever
##encing
gel
##quar
racing
pakistan
조직
##학급
columb
scan
harv
mk
##ems
##can
123
loose
gym
frag
스페
##laim
##ima
##르크
カン
タイトル
##ワールト
cott
territory
experiment
이유
virus
##ione
grace
##における
girlfriend
eric
##암
johnson
heads
のお
proph
involve
defend
ost
interests
##ハリ
ze
gray
bible
chuck
구조
infant
##ype
supre
typical
latin
##せん
perspective
laid
상태
たした
##ribute
##비아
brad
##화국
##lop
116
ほか
결정
neut
117
そう
##ーフル
controlled
highway
900
は20
craft
##ンタム
hook
これに
wonderful
##すれも
banks
ヒア
##bow
listening
##シル
facing
여성
カリ
bra
최고
affairs
harder
awarded
ott
emoji
resistance
inher
politician
업
giant
theor
jenn
##ミンク
アメリカの
##ッケ
cru
マン
##bb
##rif
##페이지
つけ
fifa
fluid
brook
recording
photograph
trained
##py
brian
excellent
はこの
##hire
##iciency
##갈
latter
producer
trigger
##rich
컴
yog
##ulf
corporation
florida
##フラント
##숙
circumst
linked
tub
founder
##ws
##ibly
##icing
dipl
jane
위치한
mirror
prepare
duty
##acle
recall
criminal
leaned
##onia
selection
suic
authorities
constantly
##돼
대회
1913
gif
によると
accomp
##the
##cher
2002년
considering
かれている
벌
220
beef
##ファン
rick
darkness
##이라고
anton
explan
のメ
##ᅩᆯ로
error
succeed
まてに
##하였으며
##モント
possibility
##으로는
por
々に
protest
##tle
stores
spark
소속
##어져
クリス
discip
wondered
##しめ
permanent
##ティス
commander
wedding
pron
dy
##east
solo
찾
##ーストラ
documents
coord
##インタ
1911
##스를
##iders
weapon
rome
##빈
にする
##mo
amazon
##최
markets
architecture
エン
##icul
hoping
gonna
incident
grown
virginia
になっている
##urb
ヨーロッハ
てはない
archive
##achel
junior
##となり
category
내용
##ali
흐
1915
whispered
##ハンク
##uls
フライ
orders
##po
##될
##urr
chose
희
##했던
##what
국민
##ucing
2003년
않아
계속
steam
abdom
dating
md
##メン
goods
##テイ
##respond
troops
##icted
som
vary
info
inject
coal
##vis
nervous
chin
##ツアー
##える
philosophy
lan
##チン
##inations
gear
기원
##칙
surrounding
##nic
doz
##ミックス
##etr
attended
enh
bringing
tony
flex
nba
にして
운동
をした
hug
personality
##니다
없는
중요
correspond
knight
##mond
combat
##クラス
client
contrast
stayed
kir
advis
##rant
sentence
##2000
fiction
##귀
winner
brazil
음반
replace
##eral
ローマ
bib
accompl
strike
bid
drew
したり
negot
micro
apps
reduced
ふり
アト
matters
jaw
チャン
kl
##アト
##wide
##クル
##과의
cutting
conce
##식을
3000
スター
overse
##unte
##フリー
inch
phr
extreme
##ミン
##greg
##와의
debt
colors
faces
roof
주로
perfectly
confused
alexander
##ックの
성공
とされる
seed
investigation
surgeon
infr
としている
대전
부산
thirty
15일
##에서의
taylor
##らか
##팅
funds
ya
formal
fifth
unlik
##틴
rising
トン
figures
##ワン
##ンスの
knife
htm
たったか
ira
phen
##リート
flood
보내
premier
##んて
##アの
tracks
stead
flowers
businesses
lect
matth
carp
destroyed
pit
##eler
dose
##대를
##방송
personally
maria
したと
papers
volunte
sector
1916
nov
ari
##렸다
e5
のト
dd
settled
##know
tables
bost
pip
##휘
특별
somewhat
ideal
돌아
##ーストラリア
##コース
bd
cher
heal
hundreds
saturday
eggs
pulling
regularly
chat
##채
##스크
faced
싸
quote
좌
매우
notable
たな
scared
household
incorpor
##58
らす
unlikely
cf
かす
##ロート
##ショナル
offering
##rain
stir
##taining
##iro
##rad
represented
stations
plain
127
##になる
##rovers
abc
5000
glanced
##ipedia
ltd
java
##apping
mixt
##ken
adults
ultimately
##학과
바ᄁ
concentr
##ーラ
communities
decades
##ours
##isms
##ルタ
importance
するなと
moist
rug
bio
bishop
saved
refused
warning
wings
##략
gor
suffering
##ウェイ
たす
##촌
soil
requirements
아버지
variable
##벨
##ading
um
침
gaze
videos
wo
opportunities
horiz
##しゃ
depth
clothing
팔
dor
fabric
confirm
prompt
##キュラー
stephen
beneath
##anny
イヘント
cambridge
넘
pump
theme
헌
homes
##ワイト
##いい
electronic
dutch
capable
ourselves
emphas
해당
memories
desper
insert
monday
polish
##equ
##cript
guil
budd
노래
たに
##수의
tournament
##ケーション
guns
vocal
によれは
vul
carrying
nich
##ヘスト
distribut
ceo
##カラ
cyst
chamber
방법
letting
2019년
##59
rolled
resident
##ロス
##hd
residents
울
rush
섬
holly
dil
やか
##ucks
##フラン
linux
##bles
##hl
##iveness
entrance
##거리
ker
champion
##ika
##ネルキー
tender
gd
bf
##oto
labour
##min
gallery
받았다
threw
illustr
bind
이야
##illing
생산
lux
##cs
thread
エル
##outs
##わけ
beast
사업
##충
##ステーシ
package
gene
smoking
##스가
multi
acknow
issued
##hs
😭😭😭
returns
##ロシア
wikipedia
terrible
kw
の4
##림픽
##はら
measures
애니
##sch
##ほう
##hz
있던
ky
repair
instructions
##자인
driven
##aga
differences
##くつか
swall
basketball
대학교
kg
sid
donald
아니라
boston
121
##ようになる
buying
gp
きの
dishes
skill
가지고
##otted
gotten
않았다
proud
##rete
bedroom
몇
myth
##ッキー
juicy
remembered
drawing
フロテューサー
birds
controvers
fel
##oral
##otes
コール
rural
youtu
가수
##ものは
bush
칼
deput
attached
organizations
camer
ニューヨーク
butt
recognized
syd
williams
reaching
##シネス
storage
emper
##point
122
휴
distract
falls
blow
てきない
1908
fract
rig
coat
##てきない
##ファイ
situations
vehicles
ja
かれる
jar
##해서
##wich
synth
##eted
##reh
##obe
ホル
たる
##しの
##ova
##テュース
loan
anna
240
있고
yard
##while
##쿄
##옥
orchest
rav
liberal
closely
calc
しても
marine
albert
bp
positions
##ッキ
##처럼
session
bathroom
##기로
##도가
##팀
investors
maximum
staring
すへ
occurred
fairly
yuan
##교육
인간
##도는
wondering
10일
メティア
##bu
gest
elder
sarah
##てはない
##압
##되지
dick
##혜
##이라는
horn
streets
##これを
cooking
メタル
124
spain
##51
##チャート
auto
drinks
##mg
crypt
widely
##있
##운동
formation
230
extract
oxy
piano
programme
らは
##una
##ockey
diction
hack
audio
diabetes
は2
##attle
かつて
bure
hamm
딸
solutions
##essions
##orted
sensitive
structures
migr
されていない
assign
confirmed
til
withdr
relie
##apes
itch
##ifer
asks
larg
defeated
punch
ヘース
##고등학교
lifted
##arts
とその
vacc
##ck
juice
1907
intent
##スラ
lew
シャン
holds
contemporary
##명을
##oker
yours
##명이
interv
##inson
していない
aven
nam
##aints
fred
furn
hyper
leon
mountains
fought
adapt
##place
rif
##ensions
126
관한
engineer
pilot
##ホーム
educational
##ナム
가리
degrees
레이
crick
다이
ultr
survive
aunt
##にある
sons
impress
berlin
わせて
dentist
painting
corps
choices
bub
vib
francisco
rect
##부의
계획
chances
candidate
bot
bite
##ファー
キター
dealing
시리즈
scratch
아래
stronger
dressed
##exp
##ティン
counsel
urine
##컵
minimum
innoc
しよう
convinc
ster
##アス
myst
ている
exposure
reviews
fet
mall
##ティフ
naz
treas
drawn
##ッタ
のマ
thinks
##ンタル
##ᆺ한
##んか
ヘイ
spell
hoped
moves
guar
functional
##rum
##원의
returning
honestly
##ノー
시스테
##장이
いわ
샤
2000년
wales
enterpr
mistake
hyd
##되었으며
##ᅩᆾ
##inter
##eman
heavily
config
떠
선거
tie
campus
isol
panc
largely
primarily
##ホリ
punish
##흐
제공
##くに
##stone
sf
앨범
##칸
##엘
##드는
～～～
experim
confident
wanting
##iac
##ニュ
することて
##렉
bacteria
##チョ
uncomfort
ward
##タイム
ku
excited
クル
cord
stable
gramm
##は19
##anned
##izz
rarely
##といった
soph
210
##특별
##허
1905
trading
technique
dollars
둘
##クラフィ
hanging
opera
semi
にあたる
pleasure
2일
##ミニ
circumstances
thorough
iso
##iant
sydney
elections
regardless
genetic
exec
않고
pale
20일
##ショー
suspect
느
lon
retail
wooden
knees
annivers
unusual
1906
processes
cleaning
##igration
##lets
スヘイン
arc
belief
공동
1909
민주
をもって
##itage
tut
센
##ito
lob
gm
##iable
2001년
##iber
components
ios
relative
따르
screw
manip
recognize
눈
##어로
않는다
eg
policies
virtual
##のを
빠
현대
##erman
ingredients
##icians
##하기도
##ヘルク
facilities
victoria
xx
dischar
luke
allah
accounts
parad
indones
참가
identified
matthew
발전
dess
define
30일
equival
##なみ
tact
moder
##uge
exposed
##윤
assault
##メティア
프리
enjoyed
vitamin
construct
##랜
horses
stadium
rt
##ーシュ
matches
##aa
logic
compound
retired
##역시
independence
stands
whit
scholars
institution
annoy
pressed
##ヒエ
brig
kidney
universal
facts
physics
illegal
##estyle
kent
##어난
##ラの
seeking
jazz
##읍
schedul
actress
##98
guest
fert
stairs
##으로서
##ルム
sheet
##ni
##oration
supreme
mayor
hs
##jr
err
conclud
sciences
uniform
テサイン
default
wilson
protected
visible
dirty
##igation
##올
guilty
advoc
##engers
##コーナー
transition
naturally
patch
エンシン
bureau
##leep
##リーム
##なわ
gt
emperor
kinds
anniversary
gap
fed
ワールト
##せた
column
##ストン
encourage
##osa
resulting
전체
##zh
##iley
はない
##괴
sweat
이미
sne
##끼
descend
jur
fleet
pel
struggle
##きっ
##chester
정의
shooting
wrest
얼
nurs
마지
pork
sink
144
scored
ファイ
suffered
seats
분류
josh
##ヒテオ
##タヤ
victim
##osphere
leather
##bury
attorn
kelly
トリ
##iva
っており
expans
boost
recip
유명
jake
##weight
##アク
factory
##しくは
supporting
##eph
28일
instagram
##はしは
##bra
25일
##민주
embarr
tape
stab
toler
thir
vast
##ていなかった
armed
swelling
dedicated
brows
떨
happiness
inches
earned
##ひとつ
##すへて
##スか
##ワイ
##ロク
algor
##car
##town
wrapped
containing
keeps
necessarily
지내
bin
mixture
그리스
1500
negoti
suppose
rear
##もある
올림픽
solar
##트로
##권을
tips
##궁
shortly
연합
많이
infections
nu
divided
##カリ
lov
##rix
desert
ank
jumped
drum
##릴
reasonable
embarrass
sony
##좌
lv
overl
##하자
rash
##ようになり
##이라
defence
##욱
##몬
##ラントの
dies
に1
reserve
panel
##500
##ador
をつ
license
##컬
퍼
performing
cosm
133
flower
diamond
##ヘルト
diseases
guarant
##음을
relevant
##ingly
##욕
##フォル
png
solve
##stream
shake
andre
##カシン
risks
fake
결국
lev
##긴
algorith
aspects
スク
sees
표현
##amine
여자
declared
지구
##オリンヒック
jay
lawyer
locked
##2009
##ヒオ
##운데
##화를
ショー
のテ
홈페이지
consists
3일
evol
drunk
##넷
##になった
recru
これか
월드
toy
abn
위원
frequency
childhood
##ホイント
prote
##icked
accurate
한편
##ヨーロッハ
rooms
asleep
##뷔
jews
##loy
pic
cz
##쥐
##수를
suffer
132
fee
tort
crash
vegetables
구간
5일
warri
distingu
녹
echo
decent
veter
bran
prost
ファン
##ructure
multip
20th
응
##さい
브라
##umin
muslim
##なっていた
##사는
encyc
patterns
delivery
##bits
かけ
increases
improved
##レコート
##コの
##esth
##53
##ソロ
##haust
likes
##2008
##광역시
derm
##57
arthur
としても
##yt
##station
フリー
##レーター
invas
cb
abd
##たって
##のてある
##アント
tested
corporate
estimated
pir
てる
##opher
shares
ale
131
spray
바이
admitted
infrast
##urg
hence
talks
conclusion
specialist
staying
##ティック
##タース
drove
せる
retire
잠
oxygen
풍
##잡
messages
mum
profession
divor
boot
##iration
tak
##itan
##완
princess
temporary
blade
promote
##たと
평가
compreh
##52
##fall
finance
acquired
peak
##인다
angle
femin
versions
marry
このため
simpl
exclus
##フン
principal
exhaust
##oop
##uable
##hamm
전라
sending
##56
##urer
reput
conservative
역할
courses
immediate
##년에는
statistics
추가
##aver
##샤
eb
clients
inspired
recovery
##イメーシ
##らい
##worth
##ori
conducted
galax
dessert
ryan
brick
##usal
##itate
cad
##ました
kin
アフリカ
burger
uncomfortable
##84
healing
parall
granted
##87
##nie
cheek
마지막
##ロット
charged
scotland
##iii
reward
カス
##54
##ソナ
##gm
hob
craw
4일
##새
1904
marked
kal
##ヒソート
##inton
crossed
bones
묘
practical
능
격
encyclop
inqu
아르
몰
んていた
##확
routine
さな
##원을
スタッフ
bom
flesh
defeat
tube
networks
##ht
shaped
##2010
reply
weekly
sustain
presents
##izer
##ulations
practices
##fol
##ocks
##bell
##カテミー
parish
mile
funding
ignore
technologies
##となっている
deputy
margin
##てなく
##엄
기능
posts
bent
ロック
작곡
##water
ug
##かる
deeply
cogn
しているか
##なとを
도쿄
다양한
effectively
137
##삼
과정
##ista
##톤
gained
それを
밝혀
##군은
팀
apolog
##ashing
institutions
wiki
studying
prol
heritage
##lers
depos
もあり
##82
scientists
waves
creamy
jess
134
spoken
everywhere
##침
circuit
##スホーツ
lane
quietly
가운데
136
cous
##버스
##사로
divers
friendship
cig
대상
##uous
##죄
##르는
portug
pushing
abnorm
이라고
##oman
##rs
싱글
##タイフ
リー
##gie
##リスム
memorial
casual
appreciate
##owned
sore
##rick
##ensis
lesson
publications
##2007
lieuten
processing
##aving
cave
이라는
tasks
##lements
27일
##ᅦᆯ레
##さらに
rent
vamp
bend
1890
radiation
sighed
organized
opposition
diplom
writers
fired
everybody
경기도
メーカー
touched
##83
reception
communications
##repr
##going
buried
##かわ
interrupt
alongside
haz
cer
##コラ
するという
belt
dictionary
へている
arrested
##ymph
scheme
オリシナル
きた
##lad
남아
##pg
palm
neighborhood
##이의
bullet
26일
##pson
vietnam
にとって
280
burst
뮤
いていた
exists
jacob
suicide
##ミス
committed
올라
dismiss
lau
オフィ
##rice
clinical
poison
キリ
roles
charges
icon
##iser
infrastructure
보고
palace
##륙
spons
sho
##eland
extend
##ribed
##ヒート
##elve
holiday
##ᇂ게
movements
##リーの
pt
straw
unw
turkey
toxic
seasons
21일
covers
##곳
marks
republican
transportation
conven
sequence
composed
##bar
##フォート
4th
オーフン
##からは
ヒー
loves
principles
tunnel
1901
mud
surf
##ᆯ러
##igue
guards
payment
attempts
pills
everyday
19th
##コロ
##iah
##ルトラ
##cp
엄
shangh
dol
##털
기업
목록
##lyn
##whel
##umes
오스트
adopted
17일
##top
jason
iraq
vom
##aze
##きっかけ
hunter
cv
headquar
panic
regiment
nan
##itors
16일
crying
twelve
##aches
##エスト
##ウェル
##ares
##ector
hasn
##list
malays
hkd
nur
##르트
crystal
visited
##imm
artific
##care
나라
explos
인정
fallen
unn
##inder
deploy
##タム
각각
embr
decade
occasionally
##リアム
##퓨
##zer
##uv
##uan
##장으로
##ッター
##igen
カート
##성의
애니ᄆ
1903
##トラック
cure
eag
attacked
sna
7일
##ᆻ을
pyth
노선
생애
attitude
##수가
##arn
communist
creek
##진다
##상의
とう
##etics
fasc
##ンション
##ハウス
##umber
receiving
sounded
adopt
instant
soap
explanation
landing
직접
fate
discovery
めていた
##ッテ
14일
자연
は3
29일
tied
roots
blame
차지
##레스
##ーニ
finds
domain
##adder
##ras
kit
gam
challenges
항공
manual
dm
championships
##aud
newly
alan
remark
##イタリア
captured
aged
연결
wong
18일
붙
classical
hub
yahoo
언어
##real
provinc
democracy
##일보
##ythm
pronoun
intention
consequences
12일
##かかわ
##pi
cel
operated
##ylv
くは
##uster
carolina
##おらす
##년까지
strict
##다가
cro
데뷔
##itty
8일
dirt
intellect
##비스
152
##sk
oppon
theater
생활
##トリック
moral
naval
##랙
injured
##クライ
141
##リヒ
protocol
comic
contest
assigned
gast
##ᆸ게
recognition
lieutenant
##agger
waters
##iner
promotion
antibiotics
##전을
fulf
그룹
9일
##척
##etime
##동차
유지
approved
##pan
##냐
chi
facial
##해야
alice
##リアル
stack
admit
overwhel
##iture
vic
따라서
151
imperial
압
facility
##ql
맥
invent
atom
wore
container
columbia
##ographic
23일
핵
rolling
edu
のレ
##コル
りて
debate
bj
##하려
bart
##coming
sixt
ty
빌
laughing
alf
태어나
##フォーマ
작은
dys
lemon
1902
kissed
모델
スヘシャル
##제로
meanwhile
##elet
gabri
##력이
duke
hypoth
agents
reader
##orters
shanghai
significantly
roy
struck
ted
そこて
260
##카이
##テク
purchased
ったか
hits
##licit
てもある
chew
##하던
thyroid
##rence
##ナイト
component
santa
exercises
##burgh
vocals
143
인도
census
1999년
シー
オン
フロシェクト
フレー
##uki
regions
11일
##시마
##ノン
millions
salv
22일
observed
organic
node
거의
모습
156
13일
subsequently
##야마
hiv
##にした
alliance
##テイン
##ener
suggests
##eld
결혼
과학
avenue
##フック
keys
computers
##roc
behaviour
intense
공개
jail
##ois
##standing
difficulty
れている
##가는
もう
leaf
##인민
24일
##inating
translation
wip
##eller
parking
케
jersey
146
##ナス
strip
wise
147
##attered
められる
prominent
achieved
laser
##ランフリ
##ᆷ버
142
equivalent
hardly
gy
phenom
##eps
expansion
withdraw
제국
clay
##やま
appointment
officially
##サス
chop
complicated
##スタン
acceler
##ects
swing
outl
ease
##ran
##ーフニンク
に2
후보
##맨
##ception
웹
확인
のほか
approached
153
##싱
representative
blocks
redd
therm
1898
##adel
##2006
6일
toss
invited
featuring
attorney
##굴
1889
dos
genu
##rition
somebody
##hal
フォー
pharm
dates
##ミューシック
covering
##춘
successfully
meds
kevin
##부에
radi
enth
gut
ages
responded
##レクト
대신
witch
indicate
##オーフン
##81
관리
detailed
1895
exit
folk
powder
##ands
##トー
1896
##あれは
##rett
lewis
surprising
persist
플레이
bench
concrete
##テット
##운드
involves
senate
dying
interior
extension
きを
영향을
##ylvania
superior
glasses
rugby
않은
알려져
battery
##iko
priest
オリ
보여
##ront
bunch
contents
이ᄁ
ross
psychiat
をと
##ington
consumer
높은
##👍🏻
pace
publication
accused
##지의
ミューシック
jet
##2012
취임
deck
철도
dollar
##uri
##chain
merch
chemistry
もしくは
roads
renew
することかてきる
##시간
quit
공간
##nda
##onto
カラ
이름
landsc
##tery
##フォルニア
ske
physically
smiling
##2011
symp
font
promised
기본
##サッカー
aggress
extent
##ロール
expressed
consciousness
##die
##amps
sections
##가와
automatically
제3
대구
##대표
운행
##ertain
##インタヒュー
strang
##atus
##いか
valuable
dave
cable
19일
163
victims
##oa
revenue
brings
wisdom
##なけれはならない
##리고
154
heading
개최
##olas
shir
bru
loyal
가족
passenger
anthony
amend
uss
##コス
##덴
##캐
##리오
cpu
comedy
opposed
##スタシオ
슬
chase
ユー
horri
settings
##sters
assumed
1998년
babies
らない
이론
450
serves
visa
##검
##2014
refers
소설
##シット
これにより
##agen
locations
loving
restaurants
gran
##see
unt
deeper
학생
건설
##원이
##エア
상황
##とし
##텔
feedback
soccer
tvb
rud
upgr
てた
혹
##bled
어머니
cigar
perce
コース
width
patrick
##abilities
scul
cruc
이름을
pride
remov
##hist
임명
##볼
##メイン
shaking
wins
romantic
##atoes
duck
##コフ
texture
resource
たちは
soldier
##ruption
ds
delivered
outer
monster
dl
toil
##こととなった
collected
mes
##폴
되는
hills
aqu
disappeared
##erce
stones
canal
rocks
searching
뛰
##agement
turk
supplement
タイヤ
그래
poetry
filter
constructed
##chen
gross
kam
비로
열린
blend
しなかった
##fm
raising
157
assistance
vertical
##대한
##있다
purposes
surely
##スタート
##ーショ
##スキ
stem
diagnosed
ケスト
jav
kate
##レル
기원전
##지에
##이드
야구
##スタント
##コント
closing
georgia
installed
discussed
##areness
cooked
##ritis
먹
albums
lifestyle
나오
refuge
프로그램
##ordan
##셔
##ヘイ
색
gods
penns
##レンス
##ourse
##くつかの
##ていて
developers
만들어
##킨다
serge
1899
walter
insight
##んの
merely
akb
특징
conqu
treatments
이동
노동
##igo
##취
episodes
つか
facult
essentially
lyn
amounts
##ifications
authors
manif
molec
singing
survival
rescue
kings
##세의
후에
readers
awareness
scottish
##リアン
##リーナ
전문
けに
hopefully
excuse
michigan
dod
##ᆨ트
개인
jimmy
タン
##장은
absolute
supplies
쉬
서로
worldwide
sha
limits
##ツィ
##father
##십
이사
damaged
##すに
##탕
nood
##agues
ethnic
metab
##シアム
narc
ancest
artificial
1897
e6
gil
topics
##pat
1996년
##カハー
dece
reprod
parallel
그것
──
neighbour
contained
##eters
surrounded
##tail
discharge
래
woods
##pass
partnership
なとと
##gian
guests
convent
162
engaged
##rell
lymph
oak
dancing
drain
##300
##ッホン
##점을
말한다
##やすい
checking
pants
##roph
posted
##딩
のロ
frequent
uh
nause
##istol
delicious
hungry
filling
##룡
obtained
##스티
substant
わりに
inflammation
らせ
##2013
したもの
substit
whats
キンク
することは
##apy
##aron
##군이
##マト
##met
##ieties
hardware
インタ
argent
atmosphere
tries
애니메이션
tack
경찰
1980s
スタシオ
examination
꾸
##life
entrepr
spots
entit
trop
dw
appled
##apse
convention
방식
tues
##シス
waist
##トッフ
pennsylvania
##으로부터
こした
wol
persons
##itable
##제를
kay
##지고
##oir
##elines
선정
##였던
ホームヘーシ
##nn
candidates
따르면
machines
attempted
어떤
naked
render
マク
transferred
##inals
##디어
##nia
컴퓨
##렬
になると
についての
##ige
##aws
prayer
##96
bry
liv
##rin
충청
##モリ
##フィール
##쇼
##bid
270
principle
スコ
##ulating
ordinary
##なた
##ycle
교수
ford
완전
potentially
gradually
않는
mate
dean
greg
망
정도
sculpt
proved
queens
torn
나가
コート
일어나
##왔다
graduate
sv
confront
remix
##テスト
シャハン
entreprene
시절
긴
bug
なら
テュ
##텐
##emia
disorders
producing
thurs
uef
managing
##ヒュ
##マネ
db
320
margar
##gp
davis
このような
regulations
정책
appledaily
いすれも
##탁
penal
increasingly
cats
dont
ます
##ansas
framework
##자와
hint
##나다
へた
##제가
roughly
##ケース
singles
지도
attractive
##チュー
##je
drops
gib
##ターの
exhibition
argue
replacement
みの
fame
operate
##なわち
improvement
alpha
frustr
##ucc
evaluated
##heim
rapidly
puzz
obtain
couch
されていたか
overseas
전국
とされ
##てに
##액
python
##テインメント
개요
sought
gyn
dh
purple
hiding
awk
명칭
##rist
spaces
centuries
옥
orchestra
164
comparison
##なとか
capture
visiting
hurts
neutral
요구
초기
##kh
つき
mak
##oli
##스로
outcome
weakness
settlement
alert
비스
tm
フレイ
##lan
extensive
イキリスの
grip
##sd
ohio
ヒテオ
##acing
ibm
##톨
##issions
consistent
nag
curious
stool
##ishing
infin
##01
それは
きい
decrease
represents
whereas
반대
organisation
おお
をはしめ
161
##ハース
##のち
167
##rof
그가
swimming
twin
군사
golf
thumb
weigh
marvel
きて
レース
##ないと
remote
ticket
holl
##abled
bike
hockey
##ームス
announce
##닝
forgotten
galaxy
assessment
モー
レコート
violent
##ea
교황
employee
lessons
##スタイル
##기관
allen
interface
건물
##hea
voices
obser
##스와
してきた
##ーシー
##모토
われていた
##モート
어려
nest
dal
erect
interaction
역시
tuck
##ントリー
wednes
##なし
##ティション
genus
##이가
resem
revol
entering
interm
passage
monthly
それに
뿐
fantasy
편성
ups
##タイヤ
abandoned
てす
designer
strongly
subjects
##센터
compare
holes
gum
plug
비판
clubs
##シーン
フラント
ipad
disag
우리
bil
uefa
172
efficient
있는데
##큐
##achus
166
displ
riding
##コンヒュータ
terminal
통합
##중학교
##ことにより
toronto
brill
##ᆯ로
##たら
##ラリー
rober
씨
sanct
ホテル
ou
만든
##ールを
concepts
resolution
상대
##aria
##rooms
##치는
##호선
py
lands
footballer
##まとめ
explore
オーストラリア
aq
1997년
tons
##비전
beth
shouted
wand
벨
##ンスを
meetings
cort
linear
わって
vulner
electrical
##ghan
wrap
continuing
abnormal
burned
##른다
titles
billy
##rh
belly
##アウト
オール
immune
economics
するための
boom
##フサイト
낮
informed
##よりも
twist
sang
ケイ
フラック
psychology
herm
##burn
perp
##ollen
bless
branches
kur
##あけ
uncertain
yam
ignored
tuesday
ショーシ
##사에
##case
아닌
##ilton
##unct
indo
hunt
##ターン
fung
gathered
recon
wrist
briefly
stroke
177
すなわち
##ommod
disney
의한
5th
セル
sig
##지로
communicate
formerly
##ケイ
くなる
talent
mamm
##장의
##リアの
cried
hunting
indicated
joke
##orph
エア
amp
공연
olympic
##홍
こす
ツアー
infer
alter
opens
##지가
chef
presentation
かう
##asa
tin
infected
##bey
usb
##ozen
dining
きる
##レクター
offices
privacy
respectively
stun
compil
ao
mainten
혁
##chi
advertising
injuries
ウィル
nail
##ンシェ
173
기관
maid
analyst
##トア
cute
mouse
equation
인천
enforce
jacket
graduated
yards
headquarters
어린
charlie
えていた
blink
##apers
personnel
sufficient
😍😍
figured
nutrition
まれている
カナタ
かいる
atlantic
##2015
beliefs
##amental
brid
nad
aspx
##テー
pref
##으로써
visitors
##サホート
municipal
훈
bare
なから
patri
snap
1880
mechanism
##인을
##없
##2005
##ropol
seeds
##unes
creature
nit
trauma
たい
참고
##ティオ
innovation
pupp
##ᆷ피
minds
ultras
##さき
accommod
##としての
종교
thursday
##시의
headache
resulted
##スマ
rational
towns
##hydr
inspect
##ighth
admir
array
kon
##itated
maintenance
melt
##벽
##スーハー
##ウィン
##ju
##ウァー
빈
alien
permission
ultimate
frozen
##스코
か1
##ーシェ
creates
awkward
##etts
たり
もあった
##つき
proteins
##위에
tension
bags
##atty
ling
にあり
##튜
##なかったか
variables
lovely
##icate
mush
##ときに
したという
sole
##えは
engage
##폰
きか
fighter
208
float
removal
##lv
expectations
176
되었
drivers
##들에
anch
アイトル
においても
participants
##사업
##unction
영어
퇴
##レッシ
characteristics
wednesday
をし
cem
choosing
##agan
alleged
miller
##ficial
badly
shrugged
데이터
accompan
보통
pointing
민족
pg
ratio
なもの
##anted
さい
wiz
##としては
##タクション
wang
のリ
キー
documentary
shame
경력
##ensed
oldest
けられている
トロ
##あまり
중요한
183
templ
テレ
태양
slipped
inhab
eyebr
mitch
225
##uz
##dvd
assuming
##ールは
dock
experts
へて
우주
소련
##계를
confusion
poland
baron
탐
##ネマ
りか
alright
##icon
promoted
nights
abstr
궁
gord
환경
컴퓨터
1995년
##콘
flour
##인은
edges
동시에
##キア
paused
##부를
エイ
コロ
##대에
1894
presidential
shield
31일
marie
todd
sisters
주변
laur
stake
##keep
##セフ
크게
lists
ころ
infantry
bos
しの
trim
##ホテル
lg
speaker
drift
##ads
philip
##정보
##kes
##lessly
representatives
のない
##제의
rhythm
pix
lump
sake
sib
sie
##コム
hearts
산업
##폭
##스탄
oz
desired
arrive
hood
anticip
せた
##벤
stages
171
involving
##ナの
국내
mathematics
##すき
thunder
フロレス
edited
실시
slide
statements
races
1800
##シティ
ric
fundamental
256
제외
treating
satell
mt
숙
resid
breaks
##켓
したのは
228
blockchain
rou
となっていた
##jan
railroad
##atures
gathering
vine
##uces
ate
hollywood
xi
lag
##enna
けを
stopping
separated
판매
morgan
copies
dumb
##독교
reputation
1970s
##udes
ハウ
##aha
throwing
세워
##スを
conj
curve
テン
passengers
##なくなった
のタ
ruled
##db
appet
182
174
directions
##ヒオン
coverage
critics
##fo
blocked
passes
cul
205
ont
##チュア
emotion
underlying
##mi
도입
flavor
##oln
commerce
202
nurse
rely
governments
##フロシェクト
##リット
dermat
immigr
afterwards
believes
##イオ
##포츠
blast
lyr
##aping
##프리카
faculty
outdo
colonel
여기
カール
휘
implementation
ultrasound
saving
##それを
##きり
##ules
philippines
osc
alleg
federation
bruce
bump
ヘーシ
sized
가진
concentration
reserv
hart
원래
나타내
##스키
##oning
gary
pine
boun
chron
triang
scenes
##치를
cotton
##ーマン
devil
혹은
pv
pent
comics
flew
남자
resolve
みを
sixth
##했지만
##ファイル
エト
지나
##stairs
のアルハム
vital
amy
##다는
bars
##2016
のもと
##たひ
isa
ちゃ
criticism
##체의
1990s
slid
일으
형성
##전에
209
mast
##di
occupied
차량
##bourne
backed
bloody
blond
はい
ceiling
applying
전통
brew
diff
연속
##ルトン
expanded
horrible
##コーチ
connections
stops
distributed
spine
텔레
strategic
enthus
##カラー
cricket
landed
breathe
chill
dependent
##こともあり
api
lamb
##キロ
delight
lion
calories
オリンヒック
##onomy
にし
##ystem
1200
literary
affili
기간
registered
verb
regret
stored
##ミネ
bapt
거쳐
buffet
engines
killer
hir
encyclopedia
##대가
##ニューヨーク
크리스
##aly
employment
##サント
palest
trem
##쪽으로
##ifies
##문을
favourite
convinced
##원은
견
203
インターネット
のと
lig
roger
destr
awes
raz
보이
##たろう
urg
jeans
##athers
hut
##idi
##リュ
##alous
forehead
mistakes
기념
rs
지하
##エス
dict
멤버
foss
describes
をリリース
password
cleared
かって
##コマ
removing
##emic
최초의
##콜
トイツの
##ヨタ
arrest
dump
playstation
derived
reveal
khan
innocent
사무
##inois
researchers
tent
##オリシナル
scand
##リッフ
marg
착
rit
approval
subsc
joining
mong
wy
##そのまま
municipality
equally
##폐
swollen
bund
authent
ハック
dental
horror
##fish
서울특별
forming
##phia
##yright
짜
marcus
vinc
subsequent
##ライター
correctly
painted
##dam
##カール
honour
lun
worship
181
fifty
ヒアノ
##얼
corp
기존
similarly
firms
adap
1893
##としている
사상
##cel
ヒック
##さか
오늘
slip
사이에
robot
meals
연혁
##cha
copyright
rust
puts
있을
compens
entitled
steady
stew
けていた
upload
destruction
##reen
##ナショナル
##uration
##aku
##ンヘ
자료
ロントン
kan
walker
##ストラ
classroom
のク
makeup
impression
かつては
##ーヘル
threatened
##과학
creatures
universities
rag
にア
##otherapy
놓
vessels
acknowled
suitable
##묘
##ネーム
canon
コンク
feeding
のヒ
##pton
##ogy
겸
##えて
dum
##チャンネル
viral
##px
##97
##염
worn
expecting
reduction
のひとつ
sail
##eries
##laimed
struggling
##92
manufacturing
nc
pond
과거
されると
cerv
##리지
##핀
islamic
##uted
percentage
##듀
lungs
portra
grave
engineers
peer
idol
##gas
##cow
##ammed
reactions
##ᅱᆫ
colored
をしている
nt
retirement
contribute
##인민공
ff
allergy
##어를
seal
##oria
signature
##크로
administrative
##맥
lapt
colonial
さを
##キリ
성우
blues
##コーティンク
participate
사고
##rot
mars
##ンスター
elsewhere
##영화
openrice
インク
シェイ
mack
##シカ
##mony
출시
howard
##けん
탑
shots
jin
developer
taxes
수행
designs
anderson
##テス
keyboard
뜻은
hugh
exception
しなから
330
gabriel
summary
중화
worksh
illinois
##いち
##ニスト
intellectual
수록
가까
##ットを
옮
irreg
##iology
biological
thai
mb
competitive
cuts
つまり
mans
awesome
deserve
##lings
unexp
cabinet
philadel
trains
surve
フルー
hired
pse
massachus
olympics
pla
ceremony
afghan
appearances
##oen
prospect
##ologists
divide
설명
prest
preparing
pope
rival
tyl
##움
ian
シア
밴드
woke
204
massachusetts
コミュニ
##iop
attracted
##クシンク
asc
##르게
연방
##itals
지휘
##フォーム
picking
##린다
decline
えない
なとも
placing
##소를
##ask
##기술
subt
##aux
psychological
##コレクション
metropol
##esc
##지방
tract
votes
##원으로
くなった
websites
greatly
industries
spider
grounds
associate
##シション
なし
##anta
##シャハン
instrumental
기반
sandwich
ladies
rip
1870
238
crossing
telec
##んは
boots
##ンタイ
boundaries
전기
1960s
##ルー
males
##ante
##ハウ
わす
referring
##94
stiff
##ヒアノ
andy
translated
toilet
tob
preferred
establishment
furniture
1994년
ridicul
blu
dougl
f1
もの
coron
procedures
southeast
titled
##이어
possess
1892
##thy
fifteen
blur
yan
リリース
##뢰
arranged
criter
##91
swift
ef
##주시
chrom
##협회
##インの
balls
218
allergic
いと
##away
irregular
hawai
##있는
thigh
##fire
shin
##장에
gau
lid
##erning
こうした
adventure
philadelphia
differently
objective
められている
pup
pounds
##rol
조지
battal
uter
samuel
robin
argued
2세
##대는
215
hated
보호
까
##アム
ホーカル
proposal
pione
wu
sacrif
philosoph
warned
courts
##テュ
ownership
verse
towel
1885
##zing
b1
##スケ
charity
tempt
sensation
##2004
##mus
arrival
##ан
##あるか
##vs
metres
##ルカ
scheduled
ki
slave
##elli
1888
##93
##정한
raj
##부는
fruits
unexpected
トライ
##드로
venture
mining
va
substance
opinions
するもの
teleph
crab
いわゆる
1891
##마다
진출
exped
##ハイル
##eff
platforms
comprom
tid
##シフト
phrase
##acc
##2017
フロク
염
トッフ
maps
orthod
##사와
deaths
worker
しられた
b2
destination
pepper
の5
##らない
interc
nowhere
hou
additionally
1886
journalist
ライト
explains
🤣🤣
provider
radical
##coin
tomm
##ello
フォン
therapist
portray
종류
##itzer
legacy
grandfather
tennis
nether
thrown
특수
acne
##シエ
buzz
##ならす
##vent
##주는
introduce
##군을
##star
rejected
nasa
기독교
pasta
employed
개의
maintained
bands
yo
##화가
##しろ
##cover
##ustration
작가
##エティ
habits
206
しみ
##ネットワーク
##aska
ark
existed
controls
layers
##レーシ
##vere
memor
##ribe
jung
accomplish
##oly
계약
いは
joh
##ハーション
pant
##sed
educated
bold
##ヤー
##회를
라디오
##かかわらす
초대
##pool
##ウット
윈
hopes
##press
##hma
##ᆯ라
mock
lifetime
cousin
linc
##rest
enterprise
##alo
jordan
mystery
myster
indonesia
hud
latt
harvard
revel
gill
요시
reverse
fisher
absence
rivers
authentic
されているか
は4
pover
될
있다고
discount
피해
##opter
dozen
위하여
compr
initiative
mri
operator
collaps
sessions
##oust
bloom
fears
arguments
##적은
대하여
동일
sax
##체를
1887
##ツェ
reducing
##てはないか
electricity
bast
currency
reass
rifle
##otto
##하는데
reminded
guardian
tempor
のちに
proven
fishing
##oves
국립
harsh
ting
incredibly
deleg
usage
##アナウンサー
archae
##수는
shadows
composition
キリスト
나이
ruby
styles
##트리
gravity
바로
친구
clinton
찾아
hea
legislative
207
풀
##otte
broadcasting
grate
##cg
##났다
자기
prohib
レット
legit
메이
brun
750
karl
##etch
sinc
poverty
##ウァン
lover
strategies
consp
건축
numb
pseud
カイ
evaluate
masters
##릉
시작했다
##ᆷ피언
fright
##uh
survived
clut
underground
generated
touching
##world
invasion
continuous
##カース
fees
담당
cg
ことに
괴
##ると
역할을
##됐다
##ナン
wag
##서를
settle
conservation
akb48
humanity
lp
abdominal
##トライ
instantly
##キシコ
##サイル
dynamic
##usive
bog
bits
regist
1868
캐나다
전자
##セロ
stitch
tri
##orous
finishing
pearl
##apher
낙
##rent
moscow
##ushi
mexican
converted
교장
##ᆨ시
##hand
##ilst
wished
##eli
surre
dup
designated
relation
##フシ
##イスの
##boy
##acles
##osc
##어는
191
##タック
によっては
##ashi
shocked
##단의
방영
distant
4000
guilt
##eta
cemet
##sf
wanna
##xy
hitting
##フォン
candy
##ニャ
aggressive
##news
##icial
ハーク
トレ
서울특별시
apparent
improving
divorce
##フロク
demon
volt
##スヘシャル
bladder
quad
amongst
lod
squadron
되고
마을
hormone
immigration
하며
##중에
discrim
히로
judgment
##ei
cemetery
nfl
encounter
##2018
ひと
carrier
swedish
detective
johnny
##ルター
##나는
달리
instinct
females
mold
supports
##lock
1세
❤❤
바다
ティー
1884
먼
shops
beings
pand
bic
ist
이야기
boxes
cage
hosted
##eing
une
vip
outf
exchang
육군
instruments
yelled
cx
unre
##ちら
hire
chips
mechanical
agriculture
##セイ
##スに
##물을
forty
barn
##aham
たちか
##カメラ
##osition
##ソフトウェア
cheeks
sperm
##zo
agencies
olive
composer
はれている
intelligent
tale
fusion
##omed
generate
gordon
possibilities
brands
て2
이때
cognitive
channels
vig
##aro
##ミナル
##otta
1871
##メル
##웅
traveling
##grad
##atherine
##ups
nausea
consumption
##せて
assert
##annah
##멘
##ᅥᆯ리
##ンシュ
2년
도로
##cules
지배
##ailand
뉴욕
landscape
##oca
적용
유니
concerning
ひろ
lyrics
アカテミー
phill
denied
shifted
##カの
##격을
overcome
クロー
れを
stere
winners
##gust
하이
tok
chip
##ホロ
riv
ヒシネス
beta
챔피언
douglas
##어가
をめ
わない
glance
##님
212
##tic
salmon
アナウンサー
stall
##urities
아시아
##さまな
역임
##alf
フランスの
인구는
덕
##aneously
##ッティ
treaty
##riers
##성은
divine
abortion
unpr
convert
rating
##ッコ
actors
##neath
premium
1600
calend
々は
curt
유일
influenced
のあ
tb
##ストロ
adequ
malaysia
spokes
##짜
begun
winds
##mの
whilst
qualified
fid
##オール
trap
underneath
##su
dawn
ヒット
preced
211
crimes
##esa
yeast
logo
minimal
christians
##oming
かあるか
アラ
bitter
regarded
일반적으로
##ен
density
すへき
フランク
thailand
folder
gly
##ミット
courage
skip
##etti
jealous
シュニア
immun
##트를
obama
##카와
vaginal
##ーテ
##onscious
コーナー
muslims
facil
##ッセーシ
freder
tumor
susan
flick
エク
##ighters
surgical
활약
relaxed
drums
せて
##vo
##하라
##hu
##ニコ
deliber
290
garlic
처음으로
##ホイ
년
abstract
##asia
##agr
fern
##ヒリ
compass
lets
이것은
はア
1992년
##ulin
##eno
열차
##되면서
experiencing
##되며
されるか
gle
disk
matrix
ソロ
acet
이라
비교
collaboration
##リサ
235
々と
##メーカー
##둥
duties
satisfied
lex
##break
##ホルト
##elson
##せい
cole
팬
whatsapp
##ホレーション
작업
ニコ
380
##については
のシ
pas
이와
twe
ファミ
최대
##active
convince
explo
##レオ
grim
gw
##뮤
ワン
##ロース
##るか
##rine
a1
##よい
##isp
reign
oliver
##っとも
jt
accompanied
sb
##선을
##서관
ストーリー
##uating
##wick
##ソー
disappointed
shore
churches
##rac
##ユニット
부르
##정부
turkish
merg
sheep
softly
##400
xxx
##했으나
##web
##power
##illery
オランタ
물리
occasion
##키는
##하였으나
##pal
슈퍼
lincoln
waiter
focusing
elementary
##bye
표준
1993년
a3
meditation
christopher
inters
ヒュー
##fu
とされた
##선의
##인이다
luxury
콜
tib
vessel
agricultural
##ties
tir
출판
##wind
ties
yoga
ain
listing
dried
##いわれる
##ッヒンク
handling
diver
scal
unh
밖
さか
strain
##rik
refres
##print
ming
##uther
squeez
##フレット
##nhk
quantum
##zi
##장에서
216
##aba
らかに
##iph
##トリート
dual
##mc
##chem
membership
kicked
##archy
scholar
coin
poem
##참
##wall
symptom
rin
ゆう
480
##キター
transact
mason
yum
digest
disaster
citizen
##aughters
##angel
##트의
##しょ
muc
##テム
transit
##도에
작푸
aimed
rever
##walk
어느
##セフト
##요일
disgust
printed
ern
certific
1860
ci
##신문
リン
##aza
measured
gdp
stranger
##ᆼ글랜드
##간의
크로
propag
residential
##キス
recept
seaf
ranked
エネルキー
viv
joan
yang
선택
scope
##テンツ
214
##オス
meets
safely
왜
##ントの
후지
snapped
##フィールト
forgot
されない
##yo
caps
eleven
##aned
assass
310
neighb
##としても
automatic
##raine
beating
wishes
##mother
commitment
biology
jonathan
##으면
lily
directors
borrow
og
signals
resort
fewer
##체가
peel
##룬
penis
##스카
glory
##ettes
eager
213
##ラト
ana
enable
roast
pleased
조사
##ontin
intake
sak
##섭
asthma
qa
reporting
していく
##시켰다
uber
guidelines
케이
불가
trace
moore
##ユー
punishment
##rog
interpretation
sew
##명은
encore
222
prescription
dash
eve
awake
##aneous
교통
##농
##mate
plates
북한
##omin
texts
##otyp
オフィシャル
membr
seb
transpar
##ᆺ이
enemies
steak
hydro
##ographer
255
shorter
excessive
gb
##ナルト
tropical
abilities
serial
folks
흑
##olen
광주
tl
##eb
219
priority
lingu
laboratory
##ardo
##arks
디지
conversations
ein
arrow
bibli
##rus
privile
받은
オート
toast
theories
행동
intervention
분야
dude
intensity
performances
emerged
wrestling
コミック
##이었던
undert
흔
emer
나ᄂ
constitu
vas
nuts
navig
##カリー
cinema
##page
226
tightly
bye
きに
シル
prescribed
lisa
##カット
fist
nipp
bonus
antonio
##ヘリ
categories
nodes
raf
margaret
bou
##edral
transmission
toe
outstanding
232
예술
##acent
ティス
클럽
효과
demands
ともに
##othy
##アフリ
deals
asset
ルイ
##はり
denn
##シントン
덴
ankle
223
noble
엘
わせた
progressive
leung
시민
##コンヒ
chen
##xual
らと
arena
컨
haha
gates
examine
rachel
representing
preparation
stu
vet
##ucky
エンティンク
##하지만
arn
rushed
て1
##igg
jen
##이를
breasts
vr
bg
consumers
メカ
carn
##サウ
##사카
cheer
metro
surrender
succeeded
threatening
tourism
phenomen
##vic
statist
billboard
implic
갑
アマ
##なとて
farmers
ego
リスト
lith
런
obst
##시대
excit
##ことてある
##yard
israeli
spicy
maker
e7
스포츠
julia
logical
mutual
simult
enhance
##🏻♀
##agh
ロート
tt
inhib
partial
coinc
strings
subc
scientist
##하거나
##리와
##liest
bronze
packed
るか
##덜
##ecks
방향
##ogs
representation
sweden
##anes
roberts
중심으로
dramatic
##pes
##라도
とされている
demanded
##トナム
crush
##beat
menstr
renamed
か2
1881
シャイ
spo
listened
daughters
없이
##copy
텔레비전
チョ
##튼
professionals
##ᆨ터
##さと
연기
##ヒト
##조의
221
류
ウィリアム
interactions
creep
struggled
##ッハー
##hammad
##동안
있다는
##젝트
##agers
healthcare
スマ
grinned
##sem
##onal
에너
##フレス
##sis
encouraged
##학적
##ンスタ
##ークル
##アーティスト
xml
aviation
##ti
についても
##ーストリア
##vas
##erk
encl
climbed
##쉬
##쇄
soda
224
사람이
##つも
ルー
integrated
passport
slee
stare
모양
영국의
##isk
##intend
laughter
##oni
することに
##はこの
oven
x2
6th
ongoing
227
1882
##やか
##カム
archives
reliable
netherlands
##やって
マネ
217
しん
229
pyr
harris
algorithm
fiber
てられた
lightly
トー
instruction
스페인
##これに
のシンクル
##리로
##olis
fbi
screaming
##anz
twisted
くに
폐지
ラフ
##udi
##ached
niger
rubber
やかて
##나무
compete
wireless
때문이다
##임을
コンヒュータ
kel
reddit
タイム
법률
cultures
pleasant
##eem
chun
amendment
scenario
acceptable
bust
##チス
なとかある
##イルス
bitch
overview
##etical
마르
cum
estr
##ffe
anat
nerves
rape
screamed
かわ
##マカシン
증가
axis
knocked
ritual
tribe
##ributes
avoiding
centers
1991년
clark
daddy
reluct
からも
##ahn
##しき
##ᆺ을
admiral
toys
mama
コル
##ulu
clip
silly
ignor
##융
exciting
recre
ライン
##ことの
rebu
benn
##orus
##ifi
eaten
##iti
##やり
justin
piss
잉글랜드
corrid
##opl
버전
최종
##적을
grammar
にその
##aco
approaches
##クロス
mim
##ediat
discomfort
##ローマ
losses
stamp
manifest
アス
impressive
spectrum
waved
##しまい
rope
overt
tristan
anybody
に3
##라인
##ascular
directory
##otype
bik
bonds
지지
finn
lens
##さる
##サース
##aman
aaron
교회
てあるため
seventh
danc
이런
##ographical
##brid
tat
##ouds
gem
foster
corruption
beans
をかけ
persu
danny
gluc
##릭터
のイ
offensive
powered
walks
execution
のキャ
야마
czech
declar
resign
baking
shipping
rocket
##gun
enjoying
nathan
1878
288
russell
melbourne
삼성
hamilton
residence
##si
protests
adds
##shire
コンテ
lac
alloc
invis
polar
stanley
suspected
##ido
bitcoin
kennedy
shy
##uctive
diarr
legislation
chaos
bree
pitt
##bul
maintaining
pie
몽
##チェンシ
をして
alexand
produces
alfred
사진
##ヒエト
finals
eh
vagina
ri
dv
starring
##brew
explor
##2003
##tz
helic
かに
anonym
monitoring
루이
indicates
ambass
##organ
slept
bills
fatigue
firmly
acute
##프로
dall
##호를
인터넷
telegr
contributed
shelter
##fly
porn
イラスト
##よそ
inev
manchester
すれは
sud
248
avo
laptop
##pro
flavour
shed
오래
##かなり
##ストーリー
##ラソン
elderly
##つく
narr
##ソナリティ
dynasty
browser
##데이
barr
1990년
##タク
##ッケーシ
##inus
medie
ホリ
자신이
##モー
paste
カリフォルニア
##적이
rings
시스템
をお
するも
##olar
summit
##드의
defensive
추정
benj
desperate
jag
aids
개통
revers
##나이
상당
lonely
dissol
##bian
oc
##경제
꼬
##etically
nominated
##ulum
##etta
surn
enorm
phoen
월드컵
##ears
##みな
オーフニンク
##관리
tommy
흥
pole
efficiency
##books
동물
leo
さま
wax
battles
##kw
lawrence
hips
tiger
これら
publ
サウント
1883
concluded
##uli
particles
カンタム
ie
addressed
yield
돈
1872
1873
헌법
##isd
parks
실패
lud
twins
exclud
ovulation
きさ
##etary
##갑
トラック
##itarian
##웨어
studios
は5
잔
곧
jere
불러
분리
gur
##issa
lighting
headaches
550
##ことかてき
fitness
253
attempting
298
##セルス
lowest
들어가
もし
bachel
형식
lend
##とうか
##ders
##mates
warrant
##ipher
##bie
쌍
##ものてあった
넓
guang
##전에서
oblig
battalion
써
medieval
タフル
##스토
소프트
hormones
ontario
gifts
のメンハー
##しん
##スクワ
mik
##킹
をつけ
animation
그를
##ケー
terrif
##eton
##oys
segment
banking
##センス
skull
swiss
##oric
pursue
획
uc
poster
##bling
##omi
캐릭터
elevated
##メイ
founding
문학
orb
chu
unic
##구의
nasal
##flow
eyel
それか
surviv
##ヒション
cited
##지역
늘
addiction
340
sooner
テル
midnight
##スタース
sri
precious
##ᆻ다고
excitement
downtown
colleagues
vin
##과는
lowered
participated
cargo
268
versus
##ching
routes
satellite
##드를
##ホーター
245
##뉴스
##국민
テレヒトラマ
##ショッフ
shakes
displayed
collective
kilomet
##コミュニ
변화
lucy
##ンハス
1876
awful
structural
reaches
forgive
pk
##교회
##erto
えを
##days
##aky
fortune
artillery
234
칸
tart
intim
findings
scoring
##osl
vampire
##곤
ore
cyber
규모
##oda
이상의
cooperation
insult
sg
hkg
이끌
##계의
ruling
レヘル
##pack
##isy
##ニューアル
アッフ
mathematical
クリーン
출전
challenging
##대회
##または
##スティハル
accum
warn
elite
insisted
##フィア
grid
gf
allies
##writer
fantastic
begg
정규
##수로
살아
かなく
clouds
##bage
이해
enlar
dang
airlines
bobby
##스턴
セント
wre
senator
stretched
generations
정당
kaz
##umi
brow
sinus
villages
예를
징
greece
reflection
네이
アタ
criteria
iq
regulation
7th
xbox
마사
wounded
##uffle
vector
marshall
##ほとの
forcing
closest
##フォー
##ティース
symph
##alm
cape
magical
##aig
sergeant
1875
involvement
##タリスト
telephone
##osaur
circles
ginger
##リの
cbs
てあって
경영
##din
서비스
ロハート
##lu
조건
##2002
##アメリカの
##칠
##상이
##무를
##ケットホール
##icks
かし
moderate
##iov
snake
hitler
ステーシ
spoon
##종의
はし
##akh
##へと
cliff
##inted
명령
##ルは
thoroughly
contributions
대체
voted
땅
combine
phones
comprehensive
##こく
sexy
copper
damp
metropolitan
guidance
voting
incredible
collapse
interf
rx
まつ
noodles
vulnerable
grateful
빛
updated
musician
メイン
experimental
##onn
아라
calendar
compat
경상북도
penc
##셜
geomet
sung
goodbye
gosp
##ティの
##aj
morph
주인
##ソンの
##abi
utter
betray
hed
##リーは
modified
parker
앤
stub
speakers
예정
pile
orbit
##ヘア
relating
2차
등에
대부분의
##kb
laura
export
のアメリカ
describing
365
romance
fraud
##inely
받고
##자리
climb
くか
##vol
cruel
pulse
입학
##ールか
뉴스
##ンタテインメント
258
##tha
bn
ced
secrets
portugues
##テシタル
executed
マリ
##なっ
テーマ
239
floating
##ホンサー
eagle
연주
lever
##enh
paintings
sexually
##ateral
hindu
enforcement
engagement
boil
juan
outs
##appy
##esty
##ここ
correl
amate
stability
transactions
democrats
언론
インタヒュー
##ーナメント
cw
ヘット
phosph
calcium
provision
scroll
wider
examined
leaning
エヒソート
내려
##eley
##bec
##theless
module
potato
반응
フロテュース
옛
##rate
##2001
garage
##ルを
perception
dx
ついて
기자
있게
##スヘイン
viewed
dated
디지털
##ifier
nevertheless
##メイト
##ースは
groc
tasted
essay
discipline
rage
ウルトラ
##ートは
タレント
페르
##이기도
##iga
hallway
##심을
fled
논란
6000
hydrogen
indiana
##まち
##iev
233
prophet
몸
##すく
##adi
##アーカイ
있지만
js
steven
affects
grain
hier
##iri
payments
jewel
##ウェーテン
narciss
は18
cycl
situated
bored
brut
##upt
##mont
##ashes
##ichi
glue
kt
organis
arrangement
##ウィット
greet
##hel
patrol
아키
##위로
sheets
かん
れない
ヤンク
##urers
praise
epic
eyed
lil
##エム
주의
ハト
650
있어서
pediat
##メンタ
##성과
northwest
delete
discl
か19
barrel
waitress
##oded
なとは
franch
らを
carter
ランキンク
ハレ
magnetic
trials
にハ
novels
inh
フロクラム
epid
10th
좋은
acquis
##hole
companion
crucial
cheaper
trapped
ribs
프로젝트
balanced
popularity
pierre
oy
##bes
1869
cathedral
##빌
dominant
spotted
##1000
diarrhea
sof
lanc
##힌
##mill
##호로
qur
ion
##ラーの
1988년
##회사
ridiculous
동아
wink
explicit
backing
소비
consent
##kt
seiz
움
affair
politicians
1864
patt
しを
allergies
congr
고대
ウォー
mant
wisc
##sky
275
supporters
##カタ
fancy
252
강원
##메리카
jpeg
최근
acted
genes
flip
みか
actively
##asha
##lined
##드리
현재의
slaves
1874
houston
246
baker
photography
exclusive
bri
##루스
len
wipe
##일랜드
1865
##インターネット
ラク
からなる
ヒト
thrust
##フロテューサー
##irm
amid
brilliant
##hard
폴란드
diversity
imagination
anxious
##몽
lav
triple
##기와
1989년
##잔
impressed
ハッ
##レスト
emma
globe
##트남
제2차
させて
filed
のことを
computing
alarm
스위
このとき
rounds
newspapers
furthermore
seafood
236
##エイ
bam
cups
gul
graphics
fict
##obs
최초로
bing
##サイナー
followers
프랑스의
ranking
##きょう
errors
##カシ
없었다
##사관
##했다고
mixing
frederick
액
265
chand
tatt
에이
ホン
pressing
bak
failing
blanket
spare
##사이트
##정에
##레일
administr
##donald
brigade
chess
puff
237
worlds
にわたって
ugly
ace
##ᆻ기
scor
##onsin
dot
정신
keen
partially
mature
##iate
##aug
##단을
targets
##enter
participation
bowel
bour
spat
interviews
メイ
releases
url
しに
celebrate
##の2
활동을
231
refr
painter
dropping
18th
meters
コーチ
integration
대중
그녀는
replic
ハナ
##제는
consideration
zen
フー
헬
timing
gardens
##リタ
##くれ
kai
minority
レキュラー
1879
이란
presum
shine
##어의
abroad
독일의
##트는
ariz
ムー
アレク
통일
clinic
tyr
##ヘス
portuguese
##ouri
##itivity
##aser
##지원
needle
eternal
isolated
managers
silk
mere
welf
##sole
하다
barrier
frost
##regon
bacterial
ネットワーク
소유
arthritis
bip
##シート
##oko
エス
##ナリオ
##ocese
austin
##ambig
lifting
athletic
boring
をしていた
핀
confeder
よう
##yd
##エー
고등학교
void
dare
prisoners
아마
##yan
1850
##덜란드
observe
wisconsin
##ミアム
hammer
maur
vincent
##キの
sara
grows
conversion
のまま
##onda
レス
adams
rack
분석
ud
##olo
ホルト
칭
jerry
sacrifice
##クソン
##밍
repeatedly
vacation
afghanistan
lighter
brave
faint
##ハルト
beam
rays
다카
잃
##トレー
sams
mentally
ハーション
nails
wool
##팔
되었고
narrative
##톨릭
##베이
242
##군에
##はす
##iu
origins
경상남도
controlling
graham
ware
##auc
249
trash
하지
1877
몬
410
gaming
eds
angels
partly
append
stern
##인으로
deter
##iry
ez
commands
lucas
공화국
##rup
advise
1863
こし
264
ハンク
depressed
portal
##track
inhabit
lightning
##yers
imagined
맨
hast
##ールに
mig
##어지
supplements
motivation
colorado
fare
loans
することも
adrian
##くま
확장
##젠
refuse
inspiration
cheng
##omer
めての
heroes
네덜란드
chemicals
##tw
##어졌다
hebrew
jenny
implemented
##문학
オル
370
loaded
wealthy
テク
이름은
##ovic
oregon
##mes
ngc
アウ
명의
ちなみ
spy
##면에
##フロー
bachelor
1280
##sex
##190
1950s
pretend
##rah
회사
volunteer
guarantee
##ちな
にと
##듬
autumn
registration
##boards
circular
visits
pav
##점이
opponent
##comes
suspic
nd
##ando
declined
등으로
넣
pok
historian
sean
sacred
##くん
##サンセルス
tomato
##fare
선언
kun
1862
걸쳐
horizont
benjamin
하루
minnes
welfare
athe
##のも
regime
spirits
molecules
bever
rainbow
##owl
thompson
##エンシ
kinda
만나
parameters
##트워
claiming
horizon
connecting
##뷰
##lim
254
251
부족
subd
##トウ
metabol
찬
##ンヘーン
##gement
diverse
lamp
musicians
adjacent
stating
##알
funeral
##ocity
embed
dialogue
curric
주민
##lie
provincial
##スタッフ
##owa
neph
vomiting
##フロクラム
##tim
grandmother
seg
escaped
dressing
##iere
제주
##경기
##치가
stain
queensland
##성에
distur
##むら
varies
##aware
stev
목표
spac
실제
##ロティ
tickets
publisher
ミニ
어떠
controversial
retreat
##oro
jumping
larry
requirement
##はい
embrace
whist
suggestions
wizard
##vereign
nr
##aid
カイト
diego
tens
observation
##usalem
ridge
approaching
힘
##erie
더욱
てて
sovereign
ホワイト
しゃ
township
##부가
##モア
mounted
##はその
##gage
##wealth
earliest
##시키는
dough
てあることを
flame
##호는
포르
##나가
prosecut
##ゆき
자리
phoenix
두고
3년
beck
##てあるか
선수이다
らし
##ルツ
bee
301
ちを
##논
##erable
liu
libraries
arizona
のい
##issance
missile
##ースを
complications
##master
jamie
binding
##のような
シャック
krist
##개월
lately
awa
banned
ruth
1867
infinite
kos
##원에
johann
アート
##eda
241
っていたか
2d
##ooked
vene
시설
pri
michel
hik
throne
공산
보인다
フロタクション
##かあり
##iments
e8
tales
consisting
deuts
243
##eze
minnesota
299
interrupted
のテレヒ
crunch
가져
hia
pud
nazi
##rics
breed
##よし
norwe
なかった
contracts
eliminate
cyl
##omot
overs
단체
##マスター
칠
jerusalem
##섯
##セク
accent
identical
##erb
shoe
realised
비행
##혹
stolen
##멸
##front
clan
##끄
das
difficulties
1987년
antibiotic
##움을
##uka
##ユタヤ
##물관
commonwealth
nelson
##みられる
recommendations
##もし
##러스
chapel
##mv
xp
##oyd
##3d
disrupt
reconstr
beneficial
boundary
campbell
##terior
ads
samples
##★☆
wallet
tune
これらは
##わすか
colony
voy
##コンサート
writes
りは
강화
sut
1년
reun
##ᅪᆯ
##젤
trusted
tourist
たない
소개
##겼다
##enson
collections
たとえは
##ヒロ
##フラス
nursing
##リリースされた
kansas
bald
244
publishers
##たた
uni
contribution
개교
vow
제한
##ライス
berg
##roit
##2019
consol
bbq
transaction
종합
substantial
mvp
##바이
genuine
poems
ちなみに
390
ふりに
##occ
cycles
##とま
##opes
emily
후반
##자들은
##キュー
cameras
##させる
a2
neat
resting
##rane
seattle
##opa
##words
257
ソウル
austria
refere
hurry
1861
##nat
##당의
##eu
##アート
알렉
ti
の1つ
vik
가리킨다
warrior
##둔
portfol
christianity
##철도
nec
##uman
experiments
peoples
##モノ
prevention
bubble
파일
##カロ
##한다는
ukraine
installation
console
certified
coins
swear
##콩
##정의
##すへての
bearing
しょう
##ов
したものの
##モーション
cultiv
burns
overwhelming
##ᆰ은
ink
にこの
urge
accessible
##oped
##フリッシ
420
securities
hog
carr
##ティアン
peaceful
##ッヒ
tracking
insist
sul
개시
##フは
##isu
editing
##ascript
ramp
##어서
##omo
static
##ヒール
##사단
belg
はす
ホイ
underw
262
believing
achievement
sao
harbour
speaks
##ワールトカッフ
distinguished
expedition
##umbling
##칼
ultra
gigg
enormous
점령
lobby
rude
explaining
にまて
제조
scent
##itary
ej
lasted
##https
intermedi
cj
##ハイス
neil
emerging
caring
388
##쪽에
emotionally
깨
##とされている
shah
forec
##さわ
dread
bears
gamb
##フー
##탑
carlos
##アシ
##マッチ
クラント
replacing
significance
##クの
247
whoever
scrub
fracture
ワイ
##산업
liberty
사용하는
태어났다
considerable
하나의
##holders
noun
획득
ntt
##abul
##케이
df
##혈
##emen
configuration
occasions
sweep
abdomen
woo
behalf
salary
pancake
tense
##arin
조약
oriented
consc
shade
grind
odds
condem
suspended
##まては
믿
국회의
fellows
##name
##rr
indigen
incorporated
norman
acoust
배경
clo
craig
catching
retain
voters
##の1
##ホーイ
##frame
ユニット
わらす
hatch
ミス
##untie
##kk
scout
있었던
endless
patent
##させ
##ットホール
##アシア
runner
voltage
zip
##uda
armor
std
언급
fog
investments
chains
발행
속하는
##orship
sheriff
##무라
creator
tends
##씩
thri
##low
stair
유사
quantity
districts
photographs
##コア
fence
##ネイ
うと
##oshi
##unate
##asant
を1
파이
アリ
revenge
repr
equipped
rd
perceived
mins
##aire
##opsy
rode
outdoor
irre
엔진
irritation
humor
##ectomy
윌리
##まてに
competed
##101
それそれの
##소가
##やや
##ティスク
엘리
conventional
##んとの
##alt
penalty
##leton
sag
##pers
##サイス
##ugging
いられた
wi
rebell
325
##eo
overnight
fighters
##elia
##ials
タウン
chairs
##lag
employer
responses
washed
국가대표
##ルクス
전라남도
전에
##정이
bulgar
##inates
##하도록
classification
perc
bernard
podcast
제4
##ニカ
unnecess
##ません
##vet
##っち
##alia
아카
##의를
##ст
veins
surname
いられ
マイケル
np
##キリスト
##omes
스코
##iciently
abb
armen
couples
##인민공화국
classified
molecular
neo
##フレイヤー
디자인
stal
cherry
heels
inflammatory
##소년
##쳤다
operators
##tes
ヒロ
외국
##대상
263
controversy
くと
##ike
필리
##raham
robinson
nearest
##함으로써
##찌
elbow
contacts
lem
장관
nutri
cocon
cia
sunlight
まさ
선출
アクセス
disambig
##ockets
##연합
nm
verm
##icking
##hh
occasional
mercy
norwegian
nord
sits
##ivia
1866
##ᆷ프
cancel
##헨
##キット
eleg
caut
audi
##olden
꽃
미술
requested
##esters
##베르
senses
folded
メシャー
norway
トヨタ
frowned
##クリス
마음
wides
steep
arbit
259
わか
승리
##asses
pipe
のセ
れの
scores
십
ld
##リーター
설계
maryland
sap
##あったか
집합
##ᆫ다
##メカ
godd
rocky
stocks
holdings
griff
barbara
warriors
ところ
germans
restrictions
relatives
가문
273
스티
protecting
sustainable
ampl
##줄
##사회
##olester
なわ
##oons
harmful
の6
##ストの
b3
역대
electronics
278
hend
rubbed
suck
monument
##acco
hiauntie
##ecca
switzer
appearing
##ahl
##フィー
fond
득
screens
##encer
フラット
##くい
steal
conspir
traveled
reporter
switched
움직
ホート
지역에
hospitals
spreading
##ソコン
transformation
amateur
##uto
practically
##ティンクス
물질
wheat
ivan
##テレ
pall
지금
그들의
portrait
1986년
베트남
アーティスト
trunk
helen
たし
hurting
기획
285
オス
anesth
##フリンク
ルート
ティスコ
lup
patience
huh
kentucky
mul
していった
세포
taxi
shapes
pistol
이유로
disambiguation
##てす
지속
duration
##agraph
앙
##rage
아직
구분
clearing
맺
##럴
##コメント
vaccine
##タイン
##eon
zomb
297
##シウム
resume
rows
##ᅪᆯ영
##チーフ
しられ
뮤직
elig
sorts
するようになった
정확
thorn
burden
tennes
##たま
##ヨン
desktop
ここて
ambassador
pose
wiped
##인가
startup
##만을
socialist
vend
##걸
imprison
gav
graphic
indigenous
배우이다
submit
pediatric
##おか
れは
##ックを
となっており
가톨릭
entity
yr
##ск
warren
テータヘース
##f1
##itory
##ウィル
caffe
ウェフサイト
souls
っていない
possession
variation
##アフ
soy
rolls
importantly
pains
##아의
스웨
tc
ふりの
documentation
reflected
##change
technically
northeast
threats
moreover
seemingly
indians
오늘날
daw
tier
すつ
paras
##ニン
##obic
lasting
rio
invisible
추진
relieved
쓴
chlor
melody
スヘース
kad
##02
dart
アレ
コス
probability
されることか
consisted
aur
드러
벤
attending
flows
##ayed
することになった
nbc
deriv
##スコット
##zhou
obsc
tablet
simultaneously
##インチ
hybrid
benign
フロフィール
##フロテュース
quart
자동차
밝혔다
attribut
deadly
enroll
caval
missouri
barry
번역
artistic
아나
##マント
자치
equity
##opathy
##たったか
##unted
방문
crispy
구역
switzerland
##はらく
paradise
##pit
나온
certificate
separation
##라의
269
しかしなから
addict
manus
injection
##으므로
지그
이름으로
millenn
つてある
hosts
##メタル
이들은
estimate
かてきる
돼
##それに
a4
wwe
gust
##bus
266
##ネシア
8th
samsung
glow
fatal
nost
にかけての
latte
proceedings
##ホス
##amins
##iami
##らく
##ひろ
aus
カメラ
earthqu
potatoes
##2つの
publicly
murray
アシ
したことて
deny
##カント
charts
##ワース
suite
불구
##nut
##レキュラー
stewart
terry
alab
빅
런던
avoided
corners
trips
median
##オル
moz
lazy
blake
##abe
##neum
gulf
doorway
discussing
wifi
sug
작성
territories
beng
##そこ
##illion
io
##ツァ
crap
개칭
ignoring
mull
bean
coupon
##임스
##픈
kle
boats
440
##クタ
シャー
printing
organs
geography
dispute
##hor
destiny
##あい
미사
tennessee
カッフ
스토
##ipper
lined
ろう
useless
specified
##チア
##자들이
eleph
rna
grat
マリア
깊
temperatures
##あろう
ナイト
operational
junction
frustration
##omon
개봉
##헤
イス
demol
좋아
dt
명예
평균
##マシン
##レヘル
##ogram
penins
rabbit
ていた
##シンク
##サイク
sans
##rated
##ウの
scary
##ceeding
キャスト
recovered
サラ
308
strand
하나이다
herb
シャンフ
##pread
##먼트
##wes
recordings
rhe
##부르크
corridor
meaningful
거주
solving
biz
채널
eug
오브
collapsed
lb
interactive
variations
##🤡🤡
##구역
morris
##홀
##법원
travelling
elabor
267
するように
말했다
recipe
##irk
유래
##すみ
エリア
##mel
wii
seth
kol
##워드
303
かその
##동에
tourists
nash
##ayer
drives
junk
は10
sebast
essence
##ーシャル
430
backwards
##かつて
セン
ってきた
commissioned
mend
nons
スコット
rim
rehab
##은행
보다
##obi
##민주주의
megap
flights
chel
것이라고
##いに
##ean
##만이
부문
sentences
わせる
テキ
##ロコ
##もう
sketch
1985년
305
profits
##echn
adequate
e3
아우
jesse
통과
widespread
##クマ
##습니다
colum
longest
277
##plant
##bank
itunes
##メシャー
scholarship
그런
dug
token
herpes
racial
##のた
##ランシ
slim
##했을
measurement
charlotte
tamp
toes
##イルラント
tutorial
elevator
collar
##ふり
다음을
261
cnn
##ステークス
만화
비해
poured
descript
hein
wayne
rinse
evolved
devast
##mn
##itudes
사이의
gaining
populations
preventing
##cin
hurric
##웨이
kissing
276
sizes
##었던
##gate
##aven
emphasis
mx
delta
##エンス
ソニー
congreg
윈도
boards
dull
keith
부여
##ensional
assignment
pete
바라
peters
##カホール
curry
##hp
lub
pause
blo
detroit
cholester
노르
msn
브라질
productions
すと
pend
expenses
fatty
한국의
##idays
ck
constip
##icular
##オフィ
seam
##achi
idiot
##uum
##れない
marath
##학생
272
##van
##onian
seated
##소의
phenomenon
fork
##오카
て3
##라스
coconut
consens
##니스
judges
constitutional
borders
비디오
invite
졸업식
franklin
##うた
##ちょう
あの
jelly
##ilia
ecos
##ар
stabil
miami
##했는데
さく
##ommon
lecture
charm
hawaii
##로의
utility
ral
herald
1848
syria
あなた
##sea
외교
##ンテー
チャンネル
wheels
30pm
となったか
놀
julian
signing
stressed
gospel
##utter
bah
##여자
edin
##ランク
frances
frustrated
##クランフリ
demonstrate
##サウント
279
subtle
##plus
cholesterol
##ogl
resigned
홀
かこの
シティ
unlock
##コンク
황제
##asis
##ホッフ
うち
airline
てない
##뜨
themes
escal
bout
exile
##하이
spinal
록
##シュー
measuring
goth
##ibilities
##리아의
savings
されるようになった
##ーファ
2x
gps
311
はなく
##acht
slaver
wright
##금을
gras
intest
reloc
velocity
consecut
##inth
읽
##mat
##ルティ
dwar
##icia
まって
flames
##イキリスの
##gbt
menstrual
gotta
##cia
##yu
315
statue
현재는
cramp
319
シェームス
めに
rena
trends
はハ
beard
국회
revolutionary
##상에
amph
##やく
bottles
やす
알고
cheung
treasure
##oka
##iaz
javascript
gad
volumes
pairs
unity
bw
##フィン
혈
##메이
apost
ナイ
explosion
##ントラ
testament
joshua
フィル
intend
analyt
handful
ミュ
cube
끌
オヘラ
##비를
berk
##names
##マンの
##eas
tung
제5
harass
302
singh
delayed
##opath
coastal
tobacco
mothers
295
クラス
293
climbing
##ンシー
##ais
aspir
consistently
신문
requests
outline
sushi
##オーハー
accidentally
rally
dragged
pillow
exhausted
くから
flexible
ライター
virtually
toll
274
advantages
시행
alternate
arabic
implant
behaviors
jury
##acked
##ニアの
##メンタリー
ユタヤ
southwest
potter
sandy
argentina
あき
##ivan
##ものに
##oku
##itative
술
slice
##du
286
스웨덴
completion
coalition
paragraph
경기에서
promises
jennifer
##アイトル
protective
ることかてきる
abraham
unem
arist
##エフ
valve
그린
swallowed
よし
##ер
자주
curios
adapted
orthodox
해석
firing
##illes
##aceae
##물의
의원
박사
contrad
quot
メル
contrary
##assy
harvest
hkgolden
##いえる
##レーヘル
ハム
##inian
##aca
suggestion
ethics
quoted
celebration
##lah
##풀
departure
##명으로
##eee
stuart
##ンスは
승강
##04
refriger
8000
xia
ヤマ
ラウ
fits
1984년
upgrade
##iba
neglect
tribes
##ーフェ
quarters
아프리카
benz
요청
##utt
##asi
murdered
notably
bleach
##옹
は6
아내
quebec
accepting
chanel
々か
みす
플래
21st
##ステーション
attraction
triangle
##의회
dimin
##ᅯᆯ
beats
acids
されたため
submar
たけてなく
licensed
기준으로
불교
sip
restore
camps
zach
271
##ニッホン
reserved
kor
template
シアター
##다고
나카
##hill
extinct
フレス
medi
##なとに
トンネル
のシャ
のミ
のル
##문화재
결합
セミ
우수
stretching
investigate
watt
mint
buttons
##usa
lank
cared
recurr
charter
##세를
さら
ミステ
societies
그들은
identification
##aby
cluster
eddie
##가의
ファイル
##estone
##rium
##eur
소재
promoting
occupation
공작
マーク
##orious
##ユーサー
bv
boxing
declaration
##었으며
コールト
warmth
petro
angela
muhammad
スティ
してしまう
symbols
basement
##neys
##フラット
##まつ
danish
글로
계열
selfish
pneum
obstr
eos
satan
unconscious
##esy
fairy
##かく
grades
タム
dominated
##세이
のみて
manufacturer
가르
상호
annoying
assured
foll
##こそ
abund
bulk
anchor
기사
유전
촉
##되기
304
mississ
##イッチ
성장
chile
さくら
silently
##イレ
##ックスの
##bach
surprisingly
announcement
##선거
massage
determination
##isha
っても
deficiency
のとき
##돈
realm
##ommun
autonom
shaw
アニメーション
witnesses
withdrawal
ecc
のヘ
##gia
##트워크
fier
hull
##っこう
administer
328
murm
pollution
notion
##ische
##ın
servant
maggie
operates
jas
broadway
イスラ
sphere
##도시
mainstream
존재한다
calculate
##かった
trium
##동을
wounds
peng
bacon
##ほん
affection
トーム
wildlife
backup
loos
궤
ヘリ
manuscript
wels
dimension
##vy
##이치
cattle
##キーの
rubbing
dismissed
laz
kills
acceptance
pronounced
##テア
##구를
commissioner
membrane
edinburgh
insulin
tossed
loun
##kind
##kar
prosper
bert
compassion
advised
##하의
gloss
##빙
e9
handled
exceed
blessed
cookies
electoral
1983년
회장
cocktail
twitch
diary
jurisd
##part
주연
여겨
실험
dian
わっている
파괴
ホーラント
valent
hypert
cope
여행
##법을
hav
기초
##umble
aired
ski
17th
##apper
けは
のモ
merchant
##05
pere
outcomes
ranging
nicholas
해외
uterus
치료
##ッセイ
##inea
##hes
resur
oscar
ることか
carpet
312
sull
traditionally
##a1
##rt
gir
##kong
##inging
incent
エレ
##リオン
##amel
##펜
されなかった
아무
특정
dermatologist
mp3
##cont
##그룹
のタイトル
지역의
dallas
mitchell
##03
##예술
matching
ミサイル
dozens
##フィック
초등학교
tanks
경향
extr
##ファミ
overd
배치
##overs
kara
gs
프로듀
남부
anthrop
##タの
secured
glucose
さは
##enberg
##zyme
crop
ケン
##븐
unst
mysterious
corresponding
dair
공항
것에
##めて
##ーシャー
allied
hollow
##アクセス
kath
ったり
##モール
targeted
pont
abrupt
colleges
##にもかかわらす
##ハイオ
extraord
알려진
##エント
284
サム
dragons
##attan
soundtrack
##싸
confer
manh
촬영
するのは
digit
수준
gloves
##mmet
습
discussions
zhang
reveals
applies
クラン
##ナント
##버트
중에
1981년
##ンスか
freely
삶
##nc
chord
customs
289
credits
결승
のり
cyp
##2년
해군
diameter
멸
urgent
10000
umb
##もん
uncommon
duo
##ye
##ᅢᆼ크
consecutive
281
ecosystem
##인트
metaph
restored
바뀌
realistic
レオ
표시
producers
brooklyn
hotels
claire
slavery
영역
imaging
checks
irr
1980년
competing
##からてある
クレイ
enthusi
pmid
motorc
marx
mineral
lt
##ことによって
##ハナ
substitute
complement
불구하고
deem
eyebrows
alabama
catherine
287
306
accus
poorly
liz
##엽
##덤
forbid
agenda
decides
lining
コンサート
ns
grasp
309
##계에
をもつ
chuckled
booth
deciding
columns
##mhz
laying
shelf
##정은
revelation
unemploy
##gon
##개발
임시
carries
동생
improvements
slammed
flowing
こった
キュ
##サキ
hunger
メタルを
##リウス
absorbed
adoption
일제
portfolio
282
sevent
283
##シュアル
funded
333
legally
##ww
immigrants
##base
##かん
##チック
restricted
isaac
shallow
포함한
##guard
고속
persistent
cec
경쟁
subur
fails
##センチ
##ッセル
##pd
##치고
nb
yor
クリー
vinegar
はしめ
익
##abad
##ランキンク
사이트
stepping
##ulous
##형을
##ホーン
vacuum
を2
recruit
twent
센터
としていた
##essa
318
stimul
attacking
##thr
##hc
rb
しつつ
##サフ
위에
codes
평화
cater
1840
하나로
##oi
satisfaction
##チル
guided
messenger
##스케
지정되었다
gnu
depict
ホスト
rider
##リク
genre
enlight
스스로
##nt
commod
##ussion
abo
1830
worthy
magazines
접근
##リンの
lakes
##irus
crust
제시
superm
##들로
b4
mechanics
martial
vitamins
##학을
406
##위의
questioned
성립
aims
##ematic
parked
croat
밤
nato
##ede
answering
beaten
トラコン
##yon
accounting
phd
1859
제안
1982년
jj
いため
##asts
youngest
accompany
정식
313
locally
##ンタシー
ranks
disagree
なった
commented
qualities
##ナーの
##800
##クトル
collins
スキ
civilian
ruin
##トニー
##부로
##てあったか
##apor
counts
analysts
inaug
sofa
locomot
323
bened
jade
세이
개혁
##リヒン
tasty
tes
윌리엄
##ものてあり
폰
generic
##ッフを
##かりの
##phy
완전히
##관은
にアメリカ
편집
4g
##コミックス
complaint
evans
delhi
뇌
##esia
sunny
##ンハニー
caffeine
embarrassed
부인
##とこ
##かた
##닉
왕국
rectang
##ctic
식민
maz
##agi
##ght
bis
せられた
오른
##09
alphab
editions
##ippi
307
##んしゃ
welsh
gains
らく
yogurt
##ostic
##atched
acquisition
##체는
의하여
재판
##コモ
doi
강력
creativity
##mare
expanding
##학의
jill
chanc
fictional
##식이
divisions
environments
그대로
##inge
nev
athletes
wt
##gal
insec
르
##エンタテインメント
franchise
curriculum
##あら
##のように
##odies
productive
influential
##iche
##イー
##ノス
lovers
sometime
##없이
##urd
lawyers
compact
advertis
tamil
circulation
375
terr
👍👍
##asma
したものてある
carb
##after
tactics
ヒーター
##스에
##owski
statistical
rah
spun
##ᆭ은
##pace
miracle
discrimination
zur
##르의
euro
arrangements
しま
김영
julie
wats
dealt
모습을
##トレ
ヒン
##カイト
##rous
발달
してい
peninsula
##아가
안전
cigarette
unix
halfway
후쿠
##たけて
したい
ティスコクラフィ
diagram
##dj
xddd
ova
harmony
##チームの
울산
##カウント
관측
sadly
b5
wick
ges
##エリア
demonstrated
베이
##olly
searched
コンヒ
cleans
tet
hex
joints
plural
squeeze
preserve
はアメリカ
ヒエ
clue
dye
##reated
오사카
춘
##みの
##사이
dennis
셰
あい
이로
##ースに
bias
ミューシシャン
cameron
dana
불리
tubes
널리
basil
##nan
##コヒー
alge
montreal
갖고
##08
wend
られていた
오스트레일
있도록
miner
コレクション
##atin
guer
sank
##ソンは
イメーシ
おも
바탕
rc
ronald
ほほ
striking
curiosity
##ews
unfair
capabilities
##カワ
abol
eva
suggesting
vanc
denmark
##라노
##redited
ji
vegetable
atomic
##인데
topical
missions
jessica
##ネー
iter
dere
12th
やま
유명한
formally
concentrate
liverpool
##ᆨ시코
mbs
tol
블랙
bro
##정책
##osexual
meter
フラシル
entrepreneurs
##ゆく
##avel
reck
mtv
キム
programmes
cops
binary
faded
##대전
アイス
##사키
diplomatic
heir
adhd
insane
desires
relieve
processed
macau
のみの
technological
##공사
inhabitants
나무
temporarily
해결
세종
표기
wherever
등록
##ᆸ을
pencil
전해
##キュメンタリー
ハイオ
프레
handsome
아일랜드
stanford
##ovo
catalog
triumph
complaints
layout
ㄏㄏ
sob
blonde
##ロントン
てきた
transmitted
acknowledge
unnecessary
michelle
천황
stays
setup
##isse
미래
モノ
tray
renov
megapx
따른
##sing
15th
beet
##ал
stalk
생성
venue
##ハーサル
dimensional
준공
atlanta
cardiac
そのまま
handbook
의사
##bir
흡
エンシ
싶
acoustic
offs
##ハット
##과에
제국의
##caa
##lux
illustrated
outbreak
intens
trophy
pb
다르
relate
fs
##サラ
이주
てあることか
sz
もなく
saudi
##avia
smash
posit
vest
##들도
surviving
サフ
##これらの
holland
newton
321
demanding
chim
##ayan
296
とか
appetite
영토
prix
은퇴
##わり
traditions
focuses
petition
accuracy
kap
squeezed
compress
closet
itching
335
accomplished
cush
1858
ちゃん
アルハ
complain
##フルー
hurried
buyers
16th
##olds
##enched
saints
scattered
comed
##07
291
convenient
경우가
##상은
##iox
firef
suspicious
polite
legislature
parliamentary
kum
##ッキンク
disl
수용
ヘルリン
##フラック
##hm
목적으로
##몰
마찬
##ニスム
대응
swung
えると
outfit
이외
updates
부정
タク
specialized
nah
##agne
prisoner
##れて
bases
##산을
일어난
darwin
웹사이트
##keeper
##usc
##flix
스트
alp
단순
complexity
demons
decreased
arter
ferry
ノル
338
prolong
##アラ
294
마찬가지
religions
trainer
##なき
##health
작용
많다
tribute
generous
제도
##かかる
##aline
북쪽
##ader
401
みに
##いえ
exh
곤
スー
curse
diocese
tyler
##シメント
evangel
grief
##western
이승
남쪽
gorge
##ロウ
ee
가정
##shit
카를
reads
##なかったため
##핵
##ランフ
chung
##oding
품
##チの
##dled
reed
unto
승격
##esar
##イヤル
servants
クライ
リチャート
##ムー
harbor
##oping
dairy
セロ
##ミル
달성
pf
##しも
##구에
の10
counting
9th
iz
찌
darker
suz
##ノフ
spa
invented
##빠
realizing
oklah
여기서
##ヒシネス
##지도
pled
공립
조성
オンライン
사람들이
sq
shiver
##ースンの
heel
particle
synt
functioning
sticks
의회
イー
싱
😍😍😍
##lord
expertise
neighbors
##핑
##dles
2500
upstairs
caution
respir
##bound
##リーフ
racist
kyle
spouse
bail
##avi
knot
##nik
292
delicate
bumps
##gt
breeze
##orf
dorm
sensitivity
mam
스튜
blew
celebrated
loudly
##7년
engaging
manufacturers
##isely
316
ウァン
suits
cleaned
skirt
characteristic
lib
##ートか
dimensions
responsibilities
##はん
くなり
violin
waff
interst
##クリエ
##ハム
animated
れていた
##クサ
uv
リス
スタシアム
##ナミ
##ouver
invitation
chrome
jeremy
traits
911
vp
arguing
distinguish
혀
##위는
##규모
lis
##컨
debr
auction
삼국
fertility
b6
##idal
encouraging
incorrect
##ナヒ
달러
turner
1945년
##コメ
mechanisms
근거
alaska
3g
expressions
spokesman
개녀
explorer
swept
departments
999
buffalo
bris
##タンス
##ときは
lgbt
タンス
descent
mtr
みんな
ヘトナム
##소는
001
ralph
advocate
kern
주인공
アフリ
##식은
algorithms
grill
momentum
vivid
##06
👍🏻👍🏻
##학년
belgium
##직을
compliment
ねた
tremb
##ウォー
クロス
developments
campaigns
sult
corrupt
brazilian
displays
나머
##bean
##통신
にス
realise
していると
biopsy
##촉
traged
てあるという
##antha
symphony
bride
establishing
ホフ
exploring
##ンテナ
##オンライン
ヒート
##ことや
dispos
praised
intercourse
farmer
mlb
hod
colin
##놓
melan
muttered
cuis
##ロシー
egyptian
먼저
##위가
congest
문화재
비롯한
##irts
ub
##ティエ
##edes
イオン
spite
fires
verbal
フィン
buddy
##abulary
ek
빨
いつ
##4년
volunteers
##クリア
##인과
##1년
##しゅ
부임
##borough
알렉산
governance
isab
##기업
reasoning
merged
##oze
때까지
adventures
smiles
mississippi
##oved
electrons
##izzy
eighth
아사
##fan
##ものも
##휴
porch
hmm
차례
springs
##메달
##ンハク
##관을
e4
##ことと
arriving
타이틀
baltim
베르
가능하다
oklahoma
bugs
##シェル
fw
metall
##디아
tariff
jak
rested
trio
ヤン
workshop
sympath
venez
##uctions
마쓰
##らを
##원에서
##단은
sally
코미
##ホウ
holidays
banana
##받아
##3년
unsure
mushroom
젊
equality
314
restoration
protesters
commentary
##function
##화국의
consume
처리
rf
nancy
parade
のなか
##yz
fortunately
compression
pepp
warner
siblings
##icut
##식의
##ridge
##드가
ninete
すき
fluids
fries
sodium
alley
moisture
맡았다
organisations
vegas
##모리
fitting
bibliography
짧
##공항
##레이션
##のてはないか
412
##すけ
##mod
safer
precise
##ranean
##ルトの
tissues
##オート
##js
locate
traum
evident
사용한다
sprint
훈련
preserv
##ハの
##エネルキー
##アリー
goss
screening
##feld
prox
##attering
##なからも
tibet
pec
preserved
batch
kre
##ニオ
enzyme
arrange
karen
##지에서
sue
lesser
の7
めたか
grilled
정도로
receives
이름이
basin
##오는
トランス
##onaut
317
contributing
organised
패배
##ミッション
520
sebastian
##불어
수마
retained
goddess
헨
##シラ
##ku
レーヘル
##キノ
pelvic
こる
hash
##셀
impair
けたか
てあれは
prone
a5
moss
skelet
dong
richards
アニ
##교통
われて
negotiations
netflix
indicating
cheating
##iller
##umed
onion
##apolis
implications
##olia
planets
uncertainty
scars
1285
아시
historically
atoms
##자에
waking
##メタ
값
##phones
##신을
surfaces
baltimore
dak
うか
indirect
sql
teenager
이들
##シェット
raymond
이곳
mf
##オリ
adren
##마크
lm
reson
bankrupt
troubles
면적은
harold
floors
ヒュ
entrepreneur
##ーフの
404
그녀의
horizontal
##imen
pitts
##냥
##aru
singular
##ーマス
##wig
##hin
riders
embedded
##dale
##해의
##コンセフト
connor
nem
はまた
ハット
##itating
addresses
か3
❤❤❤
enabled
compensation
shamp
##ouses
보도
lact
##부장
defending
라이브
consensus
##post
관광
##자이다
conclus
바꾸
bore
depress
##イラスト
##600
##osterone
##アーカイフ
wage
##사전
##とその
neural
398
##テーション
##チャンヒオ
herbs
##クール
sth
ハク
##qq
attributes
벽
brack
국방
##ecraft
travels
ケル
##fulness
monaster
##미널
##선이
제임스
kbs2
decay
##ツの
##idation
1855
##まる
belongs
titan
civilization
##シリースの
aka
도착
##시는
##quet
remembering
hamb
alumin
의미한다
혁명
patron
512
##mouth
desperately
펜
##フィルム
immort
にいた
##カナタ
##lon
더불어
광고
시청
stuffed
tops
##차로
7000
##gio
nightmare
をか
inherit
있으나
##ームの
##opp
##ホーカル
strangers
アム
##ーシンク
disturb
キリシア
rounded
##ナート
ひる
ニューシ
docs
##ии
consequence
reinforce
준비
대해서
##elyn
confusing
anonymous
##ecd
quora
flaw
disabled
hungarian
##veland
##ケストラ
mercury
cbc
##コミック
잇
colours
いられている
pean
##やすく
するまて
observations
streaming
から1
850
scandal
sic
shaft
##ホックス
vanilla
##あと
dp
##ymes
비슷한
annie
compromise
colomb
출생
チームの
pilots
nova
louisiana
gauge
이적
##chron
したことを
이스
amd
commons
telegraph
##メッセーシ
##ラマ
lied
abusive
ソフトウェア
motivated
##フランスの
결성
こそ
repet
규정
혜
completing
absent
tricks
##セラ
##학회
##상으로
ノー
##すると
viewers
13th
transf
clever
labels
investing
opponents
##했다는
から3
iowa
prey
gren
しゅ
다만
쪽
よく
ラテン
##こともあった
##なっており
businessman
##ulsion
##shine
commanded
##ensively
democrat
マイクロ
portugal
##haus
コールテン
upcoming
bleed
##media
##cat
ひに
practition
작전
##namese
dublin
ukrain
##ソース
##inkle
permanently
submitted
エンター
##illo
gag
##섬
baptist
rated
나는
등과
distinction
##シの
b8
##형의
feared
mediter
발사
##uates
portable
vietnamese
サンタ
dense
맡아
##1998
tx
##agus
##aste
キャン
のみを
##にとって
##illance
apples
ラー
##されていた
aston
ix
testim
322
moth
vlad
wah
sas
てもあった
gee
##テラ
affecting
zoom
##ためてある
##만의
변호
minded
テレヒアニメ
ruler
ワシントン
선발
##사령
genius
gasped
integrity
1차
cou
##onica
anime
cares
strikes
##량이
##uy
중단
geoff
위의
designers
체결
rene
radar
penny
inspector
null
ワイト
revealing
shrink
##imb
phon
345
humid
##エンター
strengthen
##シースンは
て19
거부
monetary
earning
##なくなる
mango
##단체
teenage
lc
네이버
muff
paths
spur
붕
tig
かく
신설
방어
cracked
pastor
behavioral
지하철
조선민주주의
##acon
inherited
416
theorem
treats
##력은
sticking
ひた
encountered
##주교
##가를
forests
##면을
belonged
shirts
fertil
concentrated
빼
동쪽
remainder
strawberry
##キャリア
absorb
intro
326
##간다
ethan
essays
happily
##ートン
불리는
것이었다
마이크로
nak
바르
instances
vancouver
intu
watson
warfare
##カーの
にマ
##로를
urged
충청남도
ホクシンク
stance
illusion
syll
raven
limitations
##サム
timeline
calculated
swallow
##ometer
관할
writings
lum
ウェル
empower
grocery
baked
생물
innovative
동맹
effectiveness
overhead
arsen
활용
autism
theod
##なお
flora
misc
시험
practicing
##テンの
フリート
spinning
shorts
otto
characterized
##리어
334
メキシコ
activist
berry
ルイス
spar
expense
거두
volunt
##셰
conform
##obile
재위
##ハイム
navigation
##んこ
않다
과정에서
electro
##uter
requiring
needing
blocking
kok
4년
##mins
enters
##udge
##yst
##ッフの
sporting
멕시코
peers
415
vienna
p2
324
lok
pls
##테인
giants
chir
kidna
habitat
주도
フック
crowded
acquire
##단이
##ハト
wallace
##★☆★☆
ich
##인물
homework
devoted
zo
##eling
gund
farming
manhattan
cramps
bucket
##makers
butler
전시
erupt
이루어져
vl
lotion
##류의
##따
fitted
coven
convey
carib
##マーケット
recipient
rm
cran
incomp
객
##leans
##キャン
mia
リュ
##릿
##우는
debris
serum
368
かした
##stick
상징
luther
##세가
equations
내각
##child
##acts
보유
controller
は7
evac
intersection
##ッシャー
지난
강원도
##vor
##뿐
hipp
deaf
intimate
##ラーは
かっている
precisely
개편
resolved
monkey
consumed
##トール
##っきり
キュー
xin
スカイ
##가이다
torture
369
collecting
학력
블루
physi
clicking
なくとも
이렇게
mous
intermediate
##atar
내부
sulf
##うる
336
hiring
##リハ
prompted
pockets
fraction
congrat
algebra
편입
##이지만
##けた
shing
국왕
##ols
네트워크
adjusted
dominic
workout
deer
slo
소프트웨어
owns
severely
nig
nasty
##いろ
##ogether
##경을
providers
##솔
revised
natal
racism
luckily
##큼
##어진다
aux
ket
productivity
cleveland
nv
##テキ
1857
북부
homeless
tastes
ところか
##녕
미야
helicopter
ally
##주를
solely
시도
permit
##pear
만약
위해서
hurricane
proportion
##ylon
##ケームの
떠나
##jin
rebecca
위험
easiest
##azed
buses
##무원
##さまさまな
bridges
파리
##짓
파견
raid
근처
bord
connecticut
sophistic
abandon
##たく
ecl
dab
##antine
유리
반란
ホス
honorary
327
##uo
##ヤマ
지상
ミューシカル
hypothesis
##イオリン
フレイヤー
hpv
にな
するよう
aboard
touchdown
journalism
##크라
employers
cros
hudson
전환
フロック
##ommunic
キャラ
##itus
amber
glas
##되었으나
roc
libert
surveillance
asap
punct
intentions
##arms
peripher
harvey
사용할
##ロンヒア
##フリン
feb
355
##ータース
357
fucked
죄
ernest
##アミ
sixteen
comparing
이듬
mortgage
attributed
##년의
##장과
bullshit
etern
terrorist
gymn
canvas
##uccess
flats
discour
##asters
##롱
sliding
꺼
##ニエル
luis
##rogen
##르고
인민
かあると
##piece
##gow
##oscopy
eliminated
##ologically
ストリート
##생활
베네
borough
##mund
##きの
완성
veteran
recommendation
fitz
##ッホ
##ハネ
invested
rebellion
헝
##space
1930s
##티나
##orie
marco
recognised
kaw
기계
지명
arise
induced
planes
##オランタ
##orth
##되기도
m2
##opr
すへての
いち
スハイ
genesis
##itic
constipation
rebel
오후
buddh
##たけてなく
wagon
exclusively
conspiracy
altered
##ugu
##シャンフ
portions
clerk
ってい
respected
brass
passive
나타나
펼
suppress
일을
나누
460
##yen
detected
judicial
predicted
シュー
supportive
トム
##キャラ
cervical
미디어
ottoman
gesture
enterprises
lust
##iji
integ
centered
sticky
compounds
##ネタ
tomatoes
padding
hover
329
armour
republicans
releasing
festiv
##サウルス
cct
slower
689
1856
##ellor
##자치
obes
behave
##rag
하게
garbage
samm
orleans
いくつかの
harrison
journalists
litter
##quis
てあったため
basics
##eston
##ilda
detection
스태
전달
331
##ニックス
ファッション
openly
tendency
때는
##김
##ヌス
worrying
여름
abu
gc
1979년
##eous
##raz
jokes
##ecution
amino
drill
のことてある
かいた
##당은
はお
pulls
くる
questioning
closure
##lev
##によると
금지
moses
kas
pts
##imal
중간
aster
##dc
##opol
종료
fx
##kee
minimize
ik
cis
##appropri
##テロ
teens
altogether
contempl
##クラミンク
motors
솔
mills
shi
##のお
720
hannah
11th
##자료
respiratory
##uana
##mented
##니어
잭
##ゆみ
ineff
##backs
gin
optional
sham
##인지
しき
pays
marit
개정
honors
emails
したかって
영화이다
##평양
##고속
##quin
foolish
アサ
##タール
구축
##リークの
##arth
demo
##giene
##みた
persian
miscar
가능한
adaptation
mour
##uro
apologize
에드
alternatives
purse
なせ
실행
analog
brushed
glen
필요한
##レシ
respective
ballet
##hot
outlet
비밀
qualify
관련된
molly
mete
cartoon
decorated
しむ
thereby
1300
못했다
bothered
##ヤン
pets
것과
##피아
するに
psp
##같
fights
투표
モンコ
identifying
ranch
작사
architectural
itchy
jy
##ミュー
oste
さない
objectives
pam
멜
マカシン
hygiene
～19
##dog
coaching
##くまて
일종
jungle
aggreg
snack
bmw
supervis
arnold
##단에
honours
sponsored
##she
##len
overly
のラ
1400
esteem
sunshine
dive
##다이
conflicts
##nm
fossil
coding
gol
mw
のハー
convicted
mj
きょう
カタ
sheer
##일러
から2
チュー
phant
それまて
reflux
hungary
breeding
연극
##orr
pars
수많은
subsid
##ophen
そんな
인수
##フロック
shining
revival
아니다
freeze
##otion
##ーションス
##ホスト
회의
timber
から18
rp
##める
##ノル
このように
grie
unsuccess
recalled
##ggy
したことか
제기
ner
##함을
문헌
남북
ieee
outlook
에게
nex
networking
strictly
mega
romans
sj
##받았다
かせ
##anna
skilled
348
안정
동부
##랄
helm
##ladesh
cyn
경우에는
##riages
sends
##lining
##트가
이슬
399
유대
##ハマ
405
apoll
chapters
343
피아
홍콩
labs
##부문
それても
자동
캠
propaganda
rol
##kshire
hrs
slowed
goo
선생
シャス
assumption
이듬해
ハトル
서쪽
austrian
celebrity
##ishi
amuse
tattoo
insects
조각
tremend
##ンショ
##intendo
ソフトハンク
obesity
##alis
persona
##ホリス
haul
camb
##クライナ
extraordinary
14th
nowiki
##권의
harper
occurring
##インスト
신라
bangladesh
##ᆷ과
##クサー
##국민학교
penetr
😭😭😭😭
エフ
##량을
##music
##エット
##isan
##로그
dynamics
##isons
가입
タイヤモント
シカ
カウ
##pot
##치원
アウト
##かし
##ologic
lacking
연장
excel
セイ
elf
##1997
enz
かお
##orse
ethical
##숭
shenz
hm
influences
オーストリア
##ウェン
그렇
mann
モン
drank
orientation
##ugs
문서
cun
ripped
##タス
transformed
mediterranean
appe
finland
organize
##ミネート
れられ
reh
annoyed
せられ
spear
puppy
##zen
bolt
regulatory
punk
마리
reviewed
##ッソ
##らすし
organisms
wicked
テー
##ノイ
distress
choir
##앤
이집
##겐
フィリッフ
cruise
계산
##러운
jab
ncaa
보존
##미터
##연구소
1854
##arians
mesh
가스
졸업생
##rec
##지지
trinity
ports
chromos
지적
らに
brains
introducing
エレクト
sadness
오스트리아
##화된
##vised
대표적인
cavalry
즐
incidents
diagnose
linda
deployed
inflation
portrayed
오픈
mailto
トラム
##ともと
planted
astronom
##もなく
##로스
consuming
vocabulary
measurements
pee
guinea
kitty
popped
ニッホン
##ティレクター
##ショーシ
##iya
##ソニー
##험을
##olin
packages
compilation
rook
spong
ないし
ソヒエト
portland
rhet
##トイツの
zu
란
##へく
contrace
madrid
メトロ
posting
비롯
##ッセン
preference
notebook
##티아
ppp
##borne
##モニー
paral
gland
##shot
heights
jor
부른다
testosterone
##딘
plaza
disbel
맹
lounge
함수
##ウンス
regards
oils
ras
nun
コント
##にして
느끼
전략
mn
puzzle
shakespear
unhappy
fulfill
psychiatrist
ibup
찰
heath
herbert
납
371
귀족
##advant
シーン
##지와
witnessed
aesth
##eastern
의하면
kenneth
형태로
##꽃
sniff
통신
##쿠라
ヘンリー
출신의
##bird
##ationally
batman
##ixon
대해서는
사용된다
シリースの
disappointment
켄
##rox
genuinely
sage
sms
358
pioneer
해안
とき
##wi
337
fastest
pharmac
yummy
フレーキ
nicely
##pop
mead
오리
490
mines
reduces
provinces
##メート
보수
##iors
しての
##far
フラス
シム
grandma
시기
なっている
ねる
##jud
legitimate
query
brah
mighty
##かね
monsters
counties
wolves
pony
1973년
cale
はマ
##우수
exploration
たちに
vii
とり
テニス
##하기로
즉위
😂😂😂😂
わた
##レア
경험
저서
vint
しさ
##isch
##감을
けん
heated
テロ
##stad
##한다고
utah
##ふる
inquiry
jewelry
339
##fect
chad
aging
parameter
앨버
1회
mug
386
discontin
332
earthquake
##rina
travelled
subsidi
##amic
##bane
wai
##math
##난다
##uer
##rpm
##이사
##시오
wells
varying
bypass
に4
344
determining
##チャンヒオン
hepat
presid
の8
disadvant
통치
이르러
moistur
##woman
##inator
##uity
요리
##ールて
각종
remarkable
substances
vern
blowing
continental
unch
ラント
##uya
elli
##밖
casting
충돌
キリシャ
upright
ovarian
##bone
ping
chant
##1996
affordable
dign
cookie
ibn
하늘
원자
てあっても
마찬가지로
##주년
##ヘート
teaches
너무
disability
puerto
refugees
shifting
gynec
##rofen
##전의
sis
kab
최고의
tolerance
plum
ナレーション
はれていた
##graduate
para
siege
そのような
celest
キーホート
484
살해
##군과
steroid
rotation
kot
##bm
포르투
##クロー
##ラート
shep
founders
352
나와
appreciated
indication
prostate
rushing
롯
##かけて
##えた
greens
##xxx
traded
deemed
##ieth
분포
jama
ロケット
はな
만에
chorus
##연대
shrimp
terrorism
##agic
##コンス
modest
anemia
embassy
loyalty
##1995
kc
##시설
guild
separately
ui
##わかる
alumn
のみか
andrea
るまて
ハレー
のとおり
414
stephan
thesis
processor
compatible
てい
##120
hongkong
crashed
bites
##ースか
최소
인가
##キャスター
385
##リコ
##imir
##リフ
permitted
shenzhen
stein
berkeley
makers
reportedly
elevation
コメ
slope
dancer
선수권
インクラント
lease
medicines
마리아
cuisine
##트라
##몇
kane
discard
villa
diana
ought
eligible
##シム
backward
제품
proport
salvation
##zed
00pm
credited
switching
체포
spotting
##mail
ministers
marble
##pin
##adays
athlete
기여
かつての
##カンタム
##ミューシシャン
##ounds
시에
vein
warming
다루
チャールス
こり
349
conception
##オーストラリア
orph
이며
weed
겪
린
##lm
1700
지진
##화의
##iary
서식
challenged
##wer
##ちの
스ᄐ
noneth
flags
estimates
heter
##ことなく
spont
mario
verlag
キャンハス
##メイク
##다운
본선
knights
kirk
418
ptt
##リーか
footage
しはしは
starter
christine
nonetheless
##こな
몇몇
eq
##150
##도와
recyc
reforms
diy
distracted
backpack
제6
deliberately
songwriter
けると
duct
##rc
discography
원작
buddhist
scales
413
ソンク
##すれは
backs
있기
##クリーン
heating
ard
nutrients
342
claud
inappropri
nowadays
くて
seoul
スカ
제정
##fj
##さら
듣
##ylan
prevented
stakes
かあったか
##anged
counseling
worries
아름
フラウン
dre
##관이
htc
hugged
shuttle
yrs
##oline
341
halt
fount
playoff
미니
남편
カラー
##wart
grabbing
bx
grac
accordingly
pittsburgh
henri
인한
##loe
356
wilder
commem
victorian
observer
fda
starred
unclear
5g
##ーフを
##においては
molecule
##ovak
terrified
컬
レン
solved
successor
consultant
magnet
trailer
stark
것도
otc
はス
をあ
##haw
advisory
계승
##심이
##주로
grove
##소리
m1
##ラノ
leak
アテ
assisted
tackle
inevitable
헝가
gover
에서는
##ロハ
##map
purely
##ムニ
らなかった
resistant
philippine
theoretical
ses
participating
다니
hormonal
unprot
미사일
pamp
제목
filip
오르
죽음
ais
##ハフォーマ
microw
スタート
351
qaq
のキャラクター
##group
salty
ave
はほとんと
broth
ふる
##acular
제거
することとなった
○○
エー
##トキ
abbey
무려
foam
bombs
##력의
alternatively
##eroids
thirteen
##hem
의견
receiver
venezuel
かったか
장기
당선
enhanced
##ハーン
jefferson
##lee
##velope
schem
シャル
は8
2つの
##の3
영업
지역에서
エンティンクテーマ
perry
##ックは
전차
옮겨
##ᆺ은
annex
passionate
earnings
ibuprofen
에는
ribbon
억
なのて
##とか
##arus
##lington
masses
둔
frown
angles
##bot
나서
cardinal
##タフル
시대의
depri
뮤지
##하였는데
transplant
continuously
클라
젊은
듀
##っくり
##이기
ヘー
princeton
gastro
スウェーテン
exhibit
고양
belonging
rend
680
409
promising
のキ
##cf
##avan
##ソーン
버스
shampoo
ヘア
##ケティンク
tumors
すへて
leban
##ウィー
jog
shiny
##세는
ホッフ
##컴
560
strips
##copic
##치의
righteous
##ニョ
##ナッフ
말을
merit
viruses
지냈다
pokemon
인디
shoved
たから
##mac
##rical
##エンシンを
resurrect
##cription
숨
hatred
##ptic
raced
##bin
たま
ウィン
integral
384
nih
tul
surroundings
accommodate
celt
##atal
doctrine
recur
viewing
cleaner
consultation
instructor
インターナショナル
legion
blinked
gentleman
던
##storm
354
##rap
##izations
##semble
rey
memoir
にわたり
dizz
##ラウ
households
profound
##orton
##선은
데이비
얼마
marij
schm
utc
preval
ruined
차트
중에서
unple
atp
##imi
loading
##ellar
대륙
syntax
##xi
##250
로스
クラシック
##평가
lime
rogers
roth
frames
burg
seas
중국의
indoor
##고를
beds
왼
sentenced
laund
cuba
sealed
synthesis
melted
pupils
346
장애
##역을
flashed
fellowship
scoop
##oba
tac
##uffy
425
autonomous
##になり
placement
genetics
doses
ome
ordering
##붙
sins
yi
yale
##답
unprotected
##umbs
##anas
359
ferr
ukrainian
こうして
lectures
##amma
obey
thresh
perspect
css
imposed
##ーフィ
##ilis
강한
suited
##ロの
##rep
rigid
347
holder
misunder
blown
anytime
##lab
exams
##ハトル
여객
purchasing
liberation
butterfly
feminine
##와는
investor
たちを
##음악
dome
kash
スイス
미나
benedict
supplied
ハチ
massac
580
v2
highlights
##maker
tragedy
굴
530
##려고
##법인
complained
##mad
##asse
pursuit
nigeria
addressing
vod
##しゅう
##apple
##요시
justify
tomb
spit
verd
353
samantha
##항공
##helm
411
##キュア
uncon
에피
##소로
banner
##forced
transparent
dir
defining
##df
annually
ratings
🤣🤣🤣
nintendo
sik
feast
dizzy
##マイル
##마이
395
cyr
##mic
soak
rises
yosh
artery
##elin
##imited
스파
1849
##アクション
カフ
あらすし
##through
leap
priests
##ople
topp
##imo
1972년
yuk
##자들의
부터
greeted
극장
##リニューアル
구성되어
citizenship
##ナンハー
##したか
pulmon
arrives
확대
gregory
とある
asshole
empathy
スティー
triggered
##jar
yen
rodr
gavin
かと
회원
extending
foul
bipolar
540
##ントを
dow
##gam
ladder
##link
##ンテス
survivors
elaborate
스피
1978년
philosophical
적이
implies
madison
トリーム
##ーラント
booking
김정
cancelled
mansion
したのか
sounding
##ホタン
##からも
##anked
civic
キル
##cut
resent
crushed
scalp
marker
냉
しくは
##ようと
못한
tire
disgu
##awei
designing
인식
urinary
##トーク
알아
achieving
かなかった
1970년
すか
joel
##ホレ
주식
##colm
tucked
likewise
wander
##berries
1974년
##になっている
##ントンの
간의
citing
사령
전설
fortress
##くみ
##못
##인들이
수학
364
안에
tiram
groom
interfere
##중앙
트리
locals
tee
##クルト
##achment
수원
408
elephant
##enders
モスクワ
##フテン
##live
servers
서부
predomin
터키
510
sep
cox
auntie
ia
ライオ
##ᆻ다는
##사무
멀
##リティー
복귀
centres
custody
vibr
##usk
riot
##レンシャー
defic
이용하여
indonesian
peek
マツ
##クトリー
cement
fundament
nsa
crus
remed
361
competitors
declare
가는
##조를
mistaken
corporations
arbitr
lions
문제를
##ものかある
deposit
소년
freak
migration
freel
responding
3x
366
##전쟁
있지
reflex
홍보
severity
のハイ
##ニオン
wors
##ひに
##구는
클래
있었고
탄생
owe
##カルト
##ホーク
kb
spencer
ipod
counted
りてある
##aching
mcdonald
burnt
##bag
##관계
##시스
photographer
editors
합병
kk
yug
alk
##inda
フルース
소녀
##フリート
すしも
##110
pag
トレー
edwards
おう
smoked
핀란드
족
フリン
envelope
화학
katie
definitions
metabolism
##foot
5년
kurt
zoo
まれて
##チオ
##unting
clust
##소에
malcolm
acknowledged
のモテル
##tains
##뇌
plasma
carbo
##시로
##드라마
barg
488
mentor
milan
##ilation
insect
1853
ranges
물론
##anne
acetamin
##ニエ
##steps
toby
afc
##ものもある
##oxide
##hyd
업무
nonsense
##inery
workplace
##upp
##arta
##ор
##olph
prototype
タイフ
bulb
huawei
foundations
ロホット
thou
##ちらも
lloyd
##anni
クランフリ
odys
entities
tiramisu
dq
성격
묘사
theology
##ストア
363
relaxing
perspectives
consulting
##나라의
##されて
1846
めの
してしまった
제7
모리
에스
문제가
adoles
encry
그림
😋😋
##zzy
##구가
##mania
graduation
실제로
かの
breakdown
##いたま
acetaminophen
403
419
ハロ
competitions
##ril
정치적
dement
중의
napole
apprent
유일한
##nell
criticized
##700
형사
isolation
iw
##ニース
miserable
nomination
제1차
panels
stumbled
hyster
マラソン
calvin
##サの
벗
physicians
prover
##jack
##idated
##ective
체계
newer
inval
##mun
eagles
upward
##본부
けか
참조
carmen
##green
blades
hosting
##lem
##가로
tox
intact
##하다가
towers
shakespeare
inspection
서울대학교
gram
##안을
공공
##ーカ
ヘースホール
##imeter
pissed
feather
##으면서
하기
겨울
gand
chees
##モス
##ocal
readily
jacques
タック
stroll
てきなかった
initiated
々を
おは
##rat
##オケ
murphy
##wd
newborn
activated
てテヒュー
##ᆺ포
helmet
에도
apt
주는
syrup
flies
그려
은행
tide
yep
캘리
caribbean
nac
##ол
エシフト
##but
##tbs
airpl
tours
협력
nok
ux
##ben
monte
1852
sucks
unpleasant
°c
##꾸
##okers
scramb
ここては
윈도우
##nis
##esco
##んとう
인사
されす
##붕
##eenth
##りする
advances
derby
조정
ファミリー
tore
##nals
470
낮은
##mingham
##いくつかの
##フランク
##annon
범죄
직후
츠
れか
##レム
アンター
spelling
believers
odor
crypto
417
ea
##アタ
rup
adobe
reserves
##タイフの
leonard
ソー
##acter
prostit
##uin
provisions
##インクラント
botan
wrink
slices
preservation
373
heather
##ptions
##フレーム
maritime
기후
bailey
achievements
ellen
1위
##oqu
certification
##1994
4x
inventory
seized
##ならは
##ciation
eyebrow
##クスト
roller
b12
evenly
そのうち
muscular
나머지
ハウス
본래
쇠
##ならなかった
##akening
rebels
oun
sustained
marathon
5m
이시
liam
sophisticated
サル
국회의원
usd
##エト
documented
espn
##ッヘ
styl
carved
rico
##ついて
건강
namely
##라운드
されたのは
execute
crops
온라인
pity
るために
사후
varieties
남성
mascul
translate
sultan
condom
マルチ
367
editorial
tiff
wbc
shud
##준다
crisp
##はや
##ulative
##keys
##ハチ
##민족
illum
헤이
##うえ
##지게
bastard
##천시
##ランの
birmingham
chambers
えに
##oya
##writing
국도
시작하였다
##시키고
スケ
##まい
prevents
イタリアの
stunned
guides
##백과
beloved
frontier
부모
shim
riley
troll
##ホーラント
##자이
##량의
clarity
ingr
macro
exceptions
のライフ
정리
##リアムス
##っていない
전반
##산시
seller
##エヒソート
anglo
guaranteed
ロサンセルス
するのか
サント
になっていた
lai
クルーフの
##ogenic
##イーン
402
のソ
kend
##공업
설정
녹음
##왕의
ほく
##마스
noon
premiere
psychologist
capitalism
consequently
##いわれている
alike
matched
アキ
キン
shark
##leen
출발
2개
bach
##hou
temples
lobster
##カニ
evan
오스
rehabil
보컬
옆
378
##1992
##ストを
forecast
##abling
wasted
trucks
donated
athletics
whip
##ーノ
instructed
ファイナル
##hed
hazard
caf
ティスニー
yak
##ラは
##ハレ
gilbert
수정
handy
##ictions
##ウィッチ
1851
homem
근무
##국이
costume
cri
##いけ
아주
##분을
stealing
widow
rheum
유형
bark
선고
공급
companions
もいる
remarks
저항
##bia
charging
1971년
덴마크
interven
それらの
caroline
ティレクター
##낸
##alled
fourteen
integer
검사
솔로
hil
altitude
かれて
perfection
ホルトカル
unlimited
tran
100m
##onin
enables
##주에
##ンフランシ
arabia
sixty
けない
teenagers
ebs
tvn
overwhelmed
##ンフランシスコ
##품을
##ッスル
verify
schiz
밑
patches
lace
partition
jurisdiction
##데미
상대로
glasgow
##조는
theft
reich
##ellers
archb
constituency
사람은
destroying
sogo
##run
whites
ache
##inos
barcel
satisfy
끝에
downstairs
372
##cht
lodge
lawsuit
dylan
##log
farther
superman
compiled
##キュアス
##phal
guitarist
##auer
기억
##물이
yelling
glac
チームは
てられ
sculpture
huff
##メール
##arre
##irable
flexibility
nope
##mentation
brushing
onset
stole
낳
squir
전사
nicolas
fade
##125
vand
あさ
もない
362
##포니아
롯데
refuses
コマ
mund
##ribly
homosexual
flipped
フィルム
뒤에
preferences
##eded
bibl
델
fridge
trench
vegg
##idently
incon
なとから
항상
prayers
곳에
inequ
numbness
##ハタ
amster
differential
##シロ
관계를
smallest
marijuana
countless
##レコーティンク
capability
associates
symb
sucked
일으켜
##ヘー
##상과
accurately
nobel
501
みや
정부는
##utical
carriage
refill
carbohydr
accidents
##aic
containers
##ハーの
프로듀서
##점에서
stur
elegant
broker
insuff
diesel
practiced
biochem
##사건
##까지는
smells
swords
##ын
##チェスター
sullivan
ure
##ーマー
못하고
テシタルコレクション
##キル
inver
consistency
##holder
인터뷰
renaissance
##ᆸ은
상업
##ennial
versa
gundam
troy
##미야
행사
##명이다
blessing
コルフ
amanda
blaz
377
topped
てはないか
jared
violet
institutional
disagre
allegations
enlarged
##dling
こち
382
destruct
laundry
lawn
##르타
strongest
derek
##フール
##놀
407
##によれは
##クレシット
semin
sectors
イェ
##lace
scare
saddle
ninth
warehouse
infectious
もあるか
##mans
bristol
digging
##enol
hairs
abruptly
##found
emi
ende
cannon
트위
ロンク
mell
chasing
コミュニティ
hl
vague
##fx
##로드
すてに
단계
variant
duncan
ancestors
##シションは
monastery
##サーヒスを
fang
##スタシアム
엔터
##로가
flush
떨어진
rebuild
##リュー
venus
うことか
もっとも
##ウスの
lenn
のみならす
breathed
skinny
optical
##yll
iris
cctv
##anus
salon
무장
brisbane
cair
evolutionary
gorgeous
##yi
##osity
##actic
slaughter
##전히
vegetarian
finnish
manor
##작용
문자
보아
defines
1845
1100
ったという
cryptoc
farms
meantime
전라북도
##аи
##1900
ceremon
あら
brunch
1969년
가까운
ding
fury
hul
judgement
tram
##rys
##ファッション
lance
pian
megan
수는
ambul
##erving
stap
옹
laure
ours
글로벌
pon
strat
intercept
383
glowing
fuj
アミ
undergo
둘러
vista
##それそれの
387
drainage
끼
maneu
무어
leop
##gel
376
phillips
fathers
kicking
쌓
supermark
정상
만드는
hobby
masc
louise
pneumonia
newslet
limbs
전주
필리핀
gossip
##モチーフ
amsterdam
incons
##ovich
jeffrey
admission
doubled
shouting
##アフリケーション
nhl
정치인
##ensen
마이클
##elihood
activists
1976년
casino
980
민간
magnitude
##のと
##ilib
saus
##フラサ
##ヘルス
카메
をとる
escort
집단
eighteen
シャイアン
##iler
slam
cruz
reli
##ムシ
##뤄
##세계
runners
robust
381
##アマ
##rill
boiling
현실
のコン
insights
vc
##서트
시장
사용하여
predecess
onc
いたか
krish
포르투갈
exagger
##ントー
blogs
##iper
missiles
pard
socks
meteor
テス
##kok
노력
##권이
noting
goose
しなけれはならない
レシ
##고시
강조
##onduct
palms
rewards
##ocyt
thirst
することになる
veterans
energ
자체
filing
arrog
##comed
aaa
precision
gan
expectation
경계
paw
trek
submarine
chronicle
vintage
independently
perpet
##etto
##chan
sanders
사이에서
##ikes
##갔다
##대와
##テサイナー
confess
diane
##マックス
propri
conclusions
ハワー
베스트
##1993
플라
##inum
exercising
shred
1820
mindset
prefect
reconstruction
edwin
379
##テイメント
1em
##ocation
unaware
##opsis
사실을
frightened
##カートを
에너지
##マの
defeating
fen
proceeded
bunk
##리스트
##관으로
につき
vold
##chy
1839
civilians
##icus
hernia
monk
플로
unions
maine
かれていた
bq
jal
##하에
374
likelihood
lasts
##iated
지식
damned
presidency
tant
lett
##フラリー
478
koh
goodness
좀
streams
infinity
##만에
batteries
##そらく
facilitate
1975년
thighs
1837
##リスク
사람을
rental
クット
セット
modeling
abused
candle
oath
##omorph
##シャース
시각
chal
cheat
chow
##izers
제이
raises
voyage
suspicion
말이다
iranian
geometry
연출
シンカホール
joey
availability
음력
モーター
excellence
##ットー
##성으로
주목
arrows
attendance
chloe
マリー
コンテンツ
집중
かか
##tor
continent
pedest
b7
##フラー
manufactured
bulletin
##ノート
swan
성질
voiced
costa
rex
마련
척
ensuring
##きっかけに
##usions
curved
##わけてはない
##ulator
##냈다
なき
ulcer
가리키는
caleb
##らしい
##シャック
embry
snacks
grandpar
##점으로
##アレンシ
##지사
##신의
らかの
##marks
coughing
ユーサー
##カウ
##꼬
restr
inappropriate
jup
weights
tendon
jets
ada
##ucci
##っこ
drown
glared
dwell
lak
capit
ivy
##var
serp
##조선
bullets
만들었다
bats
unwanted
##フロレス
garcia
analyze
##は2
##둑
gob
sentiment
ホイント
##market
##エンティンク
proposals
prolonged
콩
せん
cooling
##ascar
4k
##자에게
##ibo
나중에
##ようになっている
territorial
cir
##しはしは
dramatically
lighth
minerals
xdddd
refreshing
cottage
얼굴
##ライセンス
しようとした
economist
##iasm
lenses
허용
##ソウ
1977년
ホット
주교
dreaming
판단
nh
##owloon
interpreted
ケーフル
##산의
##ヘンチャー
##mir
healed
prelim
councill
guessed
붕괴
consort
インテ
##ophys
zones
숫
トラン
최우수
yol
ensemble
##トラフト
레코
interpre
##cb
목적
いま
はなかった
수가
modules
varied
gerald
##atics
politically
##フスキー
ascend
unders
어떻게
##oj
##ensing
スタイル
##spot
philosopher
valued
##적으로는
socially
##ativity
verbs
##センチン
관찰
footsteps
rasp
혐의
##チナ
##lett
legends
barcelona
##せす
nepal
히데
governing
##ヒスの
##론을
##ノール
geographic
rosa
동료
베이스
교토
kowloon
증거
きは
##core
economies
endomet
pimp
manuel
ceased
측정
##로로
일이
specify
grains
##lain
##rons
불린다
dialect
폭발
##퀴
thereafter
한국어
##トルフ
tactical
pyram
drying
cigarettes
confirmation
のケーム
narrowed
##ハワー
해방
navigate
phrases
originated
concerts
gg
porter
カトリック
##アを
exterior
##さえ
curtain
uncover
athens
##wright
slot
##ウィス
사회주의
つは
😅😅
##선수
##ヒーチ
falcon
##iw
チャンヒオン
wages
##우드
##조가
##windows
unhealth
1812
heartbeat
캘리포니아
さらには
shitty
##해를
stubborn
secretly
louder
전개
vampires
wishing
heck
threshold
##ナイテット
##enos
stained
##ithub
paran
##つくり
nj
##amo
##까지의
intensive
##こととなる
されたと
seeks
##odynam
filmed
unrel
ついた
overweight
##シュタ
incorporate
금융
kang
nos
barriers
오스트레일리아
スタン
1847
##ifa
genital
trevor
journals
erik
roses
##くた
interval
automated
interference
startled
ordin
제1회
turbo
はこれを
##マンス
exports
pirates
eps
신경
て4
##othe
##トライフ
privilege
welcomed
hsbc
일반적인
dale
셀
スクール
functionality
sailing
colonies
supposedly
##ロケット
conviction
patric
struggles
##adic
##당이
만들어진
1815
sleeve
capp
richmond
masturb
dizziness
##コリ
spice
##곱
##화에
##ハッハ
##igs
주었다
##uke
##ел
quotes
저장
のクラ
ハシ
##경찰
byz
##マイクロ
cylinder
##전이
세르
ching
anatomy
##anian
easter
encomp
##コルフ
appreciation
descended
##리트
##abs
1080
##동생
ashley
xv
contam
heavier
##ンシェル
チュ
사용되는
knocking
겐
イスラエル
##면의
486
lunar
manila
smelled
##관의
talented
##틀랜드
～～～～
##すら
##ナーは
ハスケットホール
mobility
coaches
deserved
dn
##edd
optimal
あまり
razor
printer
이래
##ターを
기존의
##hop
hass
판결
socket
##체육
excav
assumptions
sack
のフ
##holm
sting
subway
##あき
arkansas
クー
435
##리학
농업
##해졌다
##부인
##ullah
seasonal
높이
xo
##アリ
financing
hesitated
sunset
##キュリティ
forbidden
wives
##성군
바탕으로
##サンター
speeds
389
alumni
クイス
스테
ハヤ
유로
compiler
reset
に19
silicon
investigations
##문에
われており
osaka
thats
exert
leis
grape
metals
explicitly
##idia
rv
태풍
commemor
quint
##비가
##sha
archbishop
のこ
みは
このうち
mats
loses
##most
motorcycle
##출연
thermal
##즈의
##rors
hitch
##まく
nikon
teamm
smartphone
かも
##inae
ideology
##シュール
degener
기능을
##マリ
uti
reminds
393
박정
attribute
volcan
##라엘
fn
suspension
synthes
640
artif
##iq
고시
개선
##ライハル
hallow
sided
にちな
##쿨
のちの
felix
denver
##onna
##キャスト
criminals
##md
라틴
##룩
##urst
invention
스튜디오
deserves
steroids
atlas
alphabet
marina
られており
ls
##タイス
##マンは
darling
비슷
セカ
damaging
hc
##いと
carriers
draws
rus
overlook
voldem
##omas
crouch
##전문
sequences
wreck
코드
extends
jd
##オヘラ
oph
romania
hawk
##フレート
##스에서
##cence
##ソシエ
##륜
1920s
interchange
slack
filmm
길이
grants
396
francois
attachment
##대학원
pins
sickness
reconc
ignorance
bake
##bf
たけて
echoed
overc
taller
제외한
labeled
werew
turb
1968년
##ラシ
almond
unbel
github
えか
せられる
possessed
visitor
반면
reflects
##eh
franz
##bear
##スコミ
##하나
nevada
careers
요코
##amming
scrut
git
elastic
feminist
교체
palestine
##ulture
브랜드
거리
moll
indul
##arios
pitcher
##bd
voldemort
russians
정부의
enzymes
##くれた
##어들
##분에
##ータイ
robots
unhealthy
deadline
##적이고
shu
458
reminder
##ンか
florence
legendary
inability
ラスト
カレッシ
통한
magnific
인간의
##ティッシュ
##ports
cryptocurr
モート
aftermath
estrogen
##ат
##rust
タイムス
마법
##build
##セッサ
##량은
enthusiasm
##ロイト
exclaimed
##ethe
우승을
cancers
kindness
lanka
palestinian
すくに
##ティは
secular
##ipt
impul
scripture
a7
고종
스키
locks
##ふん
dag
にわたる
さと
##say
kne
mapping
392
##ークの
administrator
judging
쉽게
endeav
##바라
は12
radius
shells
##イスラ
associations
frog
jing
oval
tenth
##eca
antiqu
증명
##ソル
##ウェフサイト
##pad
확보
로버트
アメリカン
평양
##900
오토
develops
##조사
advisor
😳😳
##공원
summar
탑재
festivals
nz
bum
タンク
##ワークス
##리코
##ヒアの
1841
##ソニック
monarch
clarify
##エルン
##アは
steering
esoph
##ヘルム
##omatic
bicycle
##キュアスケート
b0
##빛
##nba
왔다
boarding
킹
friedrich
しているため
entries
건너
##ancies
するとともに
brandon
clause
##agonist
initiatives
nephew
chancellor
tracy
prints
enact
자본
dietary
このほか
めると
doubles
hypn
railways
##セミ
##alling
したことから
##보드
シャーナ
filming
にカ
canyon
##nity
##atile
##시킨
유도
요한
880
wires
ウェフ
##シアター
コンクール
omega
hillary
decomp
testimony
보면
risotto
apology
##beit
hostile
다섯
적극
agg
ned
adul
##국은
freezing
2の
agrees
presumably
3m
##ナウ
symmet
##aceutical
expon
ノース
사회적
##くれる
expose
노부
distinctive
hepatitis
하위
ローカル
##ほうか
ratt
homemade
##のメンハー
lia
428
1832
##ontroll
475
bury
doubts
##ishes
1844
이스라엘
blamed
##ır
curves
##テック
happier
drained
검은
ethiop
hydroc
premiered
##lr
mandatory
ちに
애플
충분
그래서
サク
##ハール
##골을
mushrooms
lynn
##ourt
relay
logan
##ハカ
metabolic
microwave
fuk
dealer
##1991
joins
##rific
##フルト
지역을
スル
##ハイト
circus
graduating
##kov
10년
##국제
zoe
てを
##ischer
소수
##세포
diving
rats
トーナメント
abbre
limiting
hazel
exchanges
경우도
seventeen
##ことになり
かける
##우주
sylv
##ようてある
ストラ
이하
##인들은
##ットは
opposing
ejac
##hart
##되자
흰
slump
スミス
##トリー
interfer
##anim
armies
packing
사람의
repeating
##bery
してある
##당을
financially
truffle
belgian
shifts
allegedly
##펠
숲
psychiatric
crowds
##ヘーター
ricky
ved
ala
steph
전용
##girl
##enburg
##ieu
metre
pulmonary
supervision
piv
무기
ちて
##ンを
slav
drifted
밖에
buddhism
にしている
psycho
ying
##テント
##kl
만족
편곡
청년
pops
##ヘースに
tian
clara
정착
낭
かてき
inserted
tapped
landmark
##130
아르헨
##ンスに
학사
##키아
ply
원칙
bz
감소
임의
391
connects
##ホクシンク
stems
reasonably
アリス
##oco
뒷
##ships
##つは
societ
absurd
まつり
unin
amen
##enza
해체
397
groaned
ハーフ
dumbled
##프가
##screen
##リム
##jun
##セー
##ハク
omn
##lay
poles
무역
ashamed
カラス
이탈리아의
##iently
##amous
##호가
informal
alcoholic
アクション
##nom
ive
jol
1842
categor
sophie
eternity
adela
갖추
##ainted
grams
mankind
##후의
##감독
##atur
equilib
stove
licence
agreements
underwear
merry
##네이
nob
peas
##첩
いており
선수로
kisses
##네시아
dumbledore
deposits
audiences
고전
서비
succession
##ショウ
malign
upside
재정
차이
422
applet
사례
수립
olivia
1843
さえ
##pur
unve
사항
하자
blender
ユーロ
1836
433
tablets
텍
cuc
##イセン
##소프트
##ロホット
##시를
인근
시내
noah
modify
growled
wart
マックス
soot
jerk
congregation
fiance
뿐만
##gart
받아들
resumed
##ろん
##해져
tremendous
dissolved
ditch
rpg
##로운
##출판
태평양
##メートルの
##andy
##분교
specification
lesions
yorkshire
フール
고구
##dan
##igious
chore
##레인
curled
balloon
unemployment
biblical
이슬람
394
붉은
expressing
jum
をあけ
tril
나폴
pilgr
claw
대사
##chich
conducting
##ハーツ
eis
lent
##ヘリー
##illon
reporters
viable
アレクサント
wrapping
재직
vil
##pv
##スと
arsenal
watches
##파의
프란
eugene
##with
##웃
정보를
##ッシー
researcher
phantom
##ナース
mentions
cysts
martha
コンハ
rejo
humili
preliminary
중학교
근대
##otypes
ripp
けており
##ヘヒー
idi
thankful
いすれ
##らう
고정
499
rupt
sharply
gonz
##ワイン
여전히
cellular
##로서의
##アイテム
タル
시티
##テータを
をな
fry
knuck
potass
타카
aber
exploded
lengths
catalogue
630
imported
touring
##つけた
らしい
##fi
marines
##력으로
대학원
ober
imf
##석을
ロシアの
シナリオ
breakthrough
emerge
アイルラント
되었으며
##させた
##lessness
mattress
まっている
##ンヘン
합류
공격을
태어난
##いている
##eco
downs
エティ
나오는
##셔널
aub
제8
フェル
전투에서
に5
あたり
##ゆう
드래
wilhelm
에피소
##ヒース
まれていた
cycling
supers
エリサ
🤔🤔
yok
reservoir
るため
##괄
##과정
selecting
りと
생명
primitive
유엔
위협
worm
##メモ
##anor
brutal
통하여
##さるを
##ierra
##zzle
##싱턴
950
bish
pang
これまて
채택
ファースト
청소년
dolph
##わか
##ハフ
등장하는
##カナ
##card
##ホールティンクス
historians
pomp
⋯⋯⋯
##code
##ホティ
necessity
にエ
##jiang
1835
typing
owen
rivals
cuff
##ホシション
##시장
subsidiary
##iliary
despair
weekends
pediatrician
advers
colleague
occupy
##보다는
descendants
620
##ワール
rejection
ew
##コンの
창립
bliss
김성
telecommunic
outlets
われたか
pitched
congestion
leisure
honda
제10
aliens
##geon
##iances
##pring
##あわ
비용
presenting
##てん
##メモリ
します
furious
##ようとした
considerably
fountain
##マラ
を3
수여
생겨
イエ
##rov
균
니시
3개
テスト
ignorant
cinc
vhs
kidding
extraction
신인
フレミアム
##되었던
bombing
떨어져
vick
オリコン
duplic
하야
てあったと
426
##otr
mucus
はそれ
trent
nk
bees
hamps
##lif
ald
##ンスキー
walt
マサ
강력한
ミー
hak
bloss
humble
##フロント
まれの
スマート
##기고
dakota
ロッテ
tribal
은하
##ーンは
sarc
diabetic
##ski
##ин
소장
뿌
anarch
generating
faithful
대형
수입
cakes
triv
##밖에
tina
かけた
marginal
##ono
verses
ほとんと
gums
jackie
チャート
irritated
appeals
intol
scanned
complaining
죽은
dop
많아
##yg
##에르
##지마
박물관
불가능
##エラ
ellis
충청북도
classics
fierce
vault
iceland
shepher
quinn
defended
lur
##yang
1838
qualifying
##과를
1963년
prophec
ks
##ルか
となるか
cue
のものか
##ワンマン
hampshire
jos
##iso
##aden
alg
책임
whistle
posture
mathematic
remedies
##テーフ
##idad
naming
はすへて
waffle
potassium
##주가
compliance
대수
모스크
첨
scall
##10000
chau
pedro
##ローラ
yugosl
はや
erected
ntv
##우승
##brush
coloured
##folk
##おく
##リアス
pursuing
##였고
연맹
していたため
sensor
hant
3세
##일을
triggers
##ет
##유키
미국에서
ウェスト
##ipei
buffer
したところ
attitudes
widened
revision
っているか
miz
##ヒーロー
영상
485
##castle
クレート
##가가
risky
각본
treasury
verte
뚜
뽀
caesar
1967년
altar
トーマス
roasted
##yson
ハイハス
antar
##コウ
##교의
forgiveness
archaeological
ハリー
conductor
##orig
pretending
convenience
oriental
ることを
beau
segments
ambit
##bet
sincer
のケ
이번
##천군
stalin
cauc
##imedia
##リエーション
rfc
vascular
##リヤ
remn
##ものたった
sexuality
하계
karma
##タウ
stats
공군
しかった
ネイ
그레이
continually
438
f2
alar
##レール
##thalm
noticing
peach
005
nicole
사장
##게임
##たけの
##리기
##adequ
##なとも
##플레이
gateway
wilderness
##つける
##ハーシ
##んに
えたか
んたか
の9
drake
breastfe
ケー
##eday
##어도
##노동
1950년
##アカテミー
graves
thankfully
j2
##ardi
なとては
bash
매년
stevens
おか
##ンシッフ
てきす
fragile
をは
offense
##シャス
보여주
##カリア
##mt
テモ
##チャイ
そこに
structured
석사
wald
vid
##ことはなかった
mobil
toddler
##서의
shudder
##drew
orn
allan
##lass
sanctions
항목
##ielder
regulate
inclusion
deterior
renewed
examining
percept
##ヘニア
660
franco
divorced
ねて
marin
780
##ᆫ스
##opia
rangers
とみな
のハス
##력과
reluctant
giov
combo
offset
かおり
ロース
underm
bennett
hierarchy
롤
denial
investigating
のタイヤ
도시로
무렵
bowed
jockey
literacy
renowned
xr
##esterone
premature
😆😆
##치로
매일
モンコル
##orum
hardest
이후에
simulation
methyl
debuted
キャスター
##하마
accessories
##チームを
seizures
##シオン
は9
calmly
ghosts
##テート
##ンシル
##version
ussr
corrected
driveway
ハレエ
clarke
##uting
##インテ
percussion
モハ
##afe
##ロフ
##ネラル
supernat
lone
##タレント
brav
murders
フィリヒン
##ひとり
zombie
##みか
redness
nate
##oire
##omal
キャンヘーン
##フェスティハル
##ローカル
apollo
delivering
collector
drawer
loads
aerial
nf
とん
sanctuary
anticipated
하드
쓰인다
emissions
429
##フライス
##マルチ
##hall
quarterly
guessing
withdrew
soaked
glands
analys
운용
deployment
친일
pharmaceutical
stunning
nurses
##공립
ならひに
hector
아랍
##しない
manages
morm
##ノロシー
##chair
##마트
##프는
확정
mash
マイク
キャリア
dk
はも
##니는
られて
sympathy
affiliated
##acies
broader
침공
manipulation
##시티
432
ステーション
사단
tensions
nike
##rob
##ステン
executives
stressful
##년대에
inadequ
eph
mba
packet
してから
remem
システムの
##ischen
tuna
tesla
##어지는
##ファンタシー
recipes
ips
kem
##ライフを
nitrogen
gripped
##ハッケーシ
spiral
##ロニ
##기획
##フシテレヒ
##mons
allahu
tariffs
qe
wad
エクス
torch
##astically
##strong
의해서
goat
argues
tags
mhz
terrain
meta
healthier
reel
chester
internationally
##우리
refrigerator
grandparents
jah
sensory
piper
amusement
##reet
peru
されることもある
##カフェ
##レスの
avery
570
shades
spher
동아일보
mice
주장했다
reid
かは
diagnostic
협회
concurr
ハーソナリティ
##ナイター
sliced
refusing
leslie
##분의
grandson
davies
기록을
##도르
queue
lords
brac
keyboards
intrig
dwarf
##wal
트로
##ローフ
당시의
슬로
##cers
##hua
##ナは
##コミ
braces
tp
sah
landlord
リート
##zu
bras
cavity
にサ
##igm
フロント
naver
사람들은
inexp
ws
##하려는
ans
##ントゥ
이루어진
427
있었지만
gown
##lia
##コールト
せい
クローハル
##ヘリア
423
vladimir
##ussy
##oglob
exceptional
##anga
##yy
##ウェスト
##しり
adject
레드
inferior
newsletter
synchron
식물
chelsea
지금의
coordinate
lcd
けい
セレ
##トの
200m
##ヘール
##asonic
##당한
migraine
hank
러시아의
gree
いや
chemotherapy
창설
##tok
privately
##lich
stamps
의료
twentieth
biting
대립
artwork
romanian
yarn
compuls
drawings
synonym
impacts
シカコ
##됨
경주
doug
##フリット
taipei
のウ
アカ
サホート
##uded
ruins
administered
##였으며
slapped
##サーチ
수사
도서관
닛
munch
hern
tolerate
tokens
##oub
수비
fats
ほう
##acs
고등
섭
papa
복잡
boeing
テンマーク
exchanged
##dia
loft
strengths
wech
##구치
xen
##みる
##프리
velvet
counselor
cot
##nu
##emark
않을
limb
harmon
unfold
resignation
さいたま
sonic
inheritance
##atra
ハフ
medals
metric
disconn
retros
wendy
キロ
demonstration
しようとする
cautious
##ラホ
てはあるか
##제국
montana
za
handic
##ylum
nach
##vv
##etz
failures
ほとんとの
カロ
부근
##atta
congressional
comparable
freight
フェスティハル
clenched
ティスク
うた
ike
タウ
하면서
undergraduate
##cu
さんの
referend
##とされ
##세에
casc
やその
##て2
remedy
specialty
hughes
イントネシア
coke
コト
구체
progression
지리
しかも
##슈타
##コントロール
##rella
mousse
##uta
489
kidneys
##atum
##インス
##mal
##opic
のは
glam
violation
gambling
eli
421
のウィ
콜로
targeting
올랐다
dots
##dx
##rified
사는
flop
onions
mao
トルコ
viii
lbs
tigers
miscarriage
##iologist
##실을
##おう
이나
##스팅
이것이
##gro
timothy
##しても
lax
フォート
##acion
cursed
##クトリア
piercing
アラン
moh
##onese
##もしれない
ハスの
##atories
ロス
연산
sweating
받는
injections
blacks
maurice
##lend
covenant
tread
##어와
crist
factories
touches
coordinates
diamonds
##は1
logistics
##bourg
peripheral
kom
1834
conson
machinery
##a2
ish
##くち
imbal
speculation
housed
のテサイン
まんか
relaxation
끊
끝나
##oos
marian
##행을
unfortunate
seizure
repos
さの
##か19
##fia
downward
generator
##けい
##ネン
##자키
##대사
someday
위원회
autobi
##데스
にオ
##agu
등에서
##ウサ
modes
445
카드
sach
##부와
##ルトゥ
##선에서
##クレート
コム
##ーフス
lateral
1964년
quantities
ターミナル
protestant
##나의
positioned
deleted
##リーを
hunters
nickname
cowork
##rock
회복
투자
hypertension
clone
##하다고
understands
5cm
cries
x1
fragments
이중
##listed
##실록
##동의
tg
synthetic
sta
enabling
gmail
か4
alc
upwards
apache
wei
hispan
##ことによる
가격
동음
colorful
munich
##ellation
kenya
descriptions
unse
paradox
융
##시즌
preview
ambitious
wasting
##조합
479
##마을
##チームに
praying
ホティ
prejud
distances
sells
oily
##ナリスト
wears
1831
465
hms
487
brooks
rifles
##いわゆる
샌
jb
つける
##wy
##モーター
incompl
combining
pes
그곳
のb
##기간
cud
##신이
waving
##ハイク
ves
conditioning
pouring
##らと
liner
joyce
appealing
1962년
##フックス
justified
eldest
cambod
등은
##カートの
##stan
virtue
##ulates
434
##네스
1941년
reservation
dul
yun
absc
초반
neighbourhood
prevail
observing
흘
##ネティ
##icill
forbes
pounding
らせる
シネマ
##heimer
1946년
しはらく
때에는
applicable
breaths
randomly
router
ノン
메이저
448
운전
ethere
troubled
のフレ
nud
メモ
epil
형제
jf
시기에
volley
gop
##gender
demolished
wen
flare
irene
439
##부터는
ターク
##uters
syrian
ufo
ps2
자신을
もまた
エント
cone
peered
##ンクの
marking
ハンカリー
##atted
철학
##リンクの
dragging
enlighten
##ンクス
vor
メン
##ルート
##urai
proxim
##죽
trillion
departed
しられる
보급
튀
##つなか
adverse
cushion
dell
##ホールを
architects
##キュラ
utterly
이제
interrog
##intosh
buyer
acres
awh
##シェイ
한다는
embarrassing
##mart
##りか
##shore
やかな
anesthesia
##기념
##quit
##봇
절대
##3つの
moroc
implementing
エコ
##nar
finite
fax
ree
lowering
チャイ
amazed
아카데미
crad
caramel
defender
윌
##astics
elb
bronch
するには
strokes
merger
육상
bbs
infants
##행정
picks
assembled
drummer
##セラー
##에게는
##도서관
묻
호텔
kernel
celtic
wp
glitter
specially
##ophone
disturbing
teasp
관심을
illnesses
hugo
##こた
parenting
さまさまな
##ipse
##일의
expend
##ハイサー
crosses
タイカース
retrieve
していなかった
にいる
vanished
exo
brake
blunt
gazette
buddha
fay
##fold
purchases
##점에
1960년
communicating
formats
rheumat
##obia
뮤지컬
동음이의
dg
えの
##vr
travis
속에
mercedes
scenarios
종종
토론
aluminum
carcin
424
tightened
convincing
のテーマ
はる
えるか
공유
disappointing
##のほ
달라
##カミ
されてきた
##류를
tenure
암살
##ocaust
##😱😱
##ームを
obit
천문
cents
から5
##일리
##ンクラフ
##atha
chewing
렌
##ibook
dysfunction
miguel
exem
toyota
カンハニー
##mia
##ウァル
prad
431
ウィーン
군인
champagne
settlers
##민주당
ラクヒー
스코틀랜드
disbelief
##ulus
1833
##thood
roose
tsang
persists
힘을
워싱턴
correlation
dislike
##콤
802
조선민주주의인민공화국
##alan
공포
통산
burke
definite
몽골
##velt
vu
##선에
##ソンか
##6년
수출
sandra
wont
ワー
noodle
sto
mortality
twil
fascinating
##テニス
settling
##arted
455
をめくる
##ogan
##아시아
systematic
halloween
인공
extensively
フィールト
ole
rut
スホ
##orrh
autonomy
multipl
fp
##ルン
assure
maced
##キョ
##ユース
toothp
##クー
bea
##サーハ
외에도
rides
##밀리
검찰
natalie
dud
pist
fetus
까지
diox
##페이스
outrage
ethn
crest
##티브
attain
pppp
レー
이재
indicator
##arten
고구려
##さし
##값
##업을
ハイン
extensions
##대에서
perfume
1m
##itas
deform
transparency
hale
ornam
1814
cease
##elong
전역
##포르
frig
から4
キネマ
thief
mys
clips
dex
outward
serbian
보는
pirate
##giving
anyways
はオ
##ケの
awhile
한정
は15
exotic
장군
スヒート
reflecting
smir
hutch
ect
gaps
とこ
##カラス
colombia
stagger
국무
sensors
リトル
부활
holocaust
blanc
##호의
##었는데
##ᆸ다
bells
cassie
endang
poisoning
mick
##명한
##비치
##ステル
ferg
##くって
##아버지
ideally
screams
nyc
##ahi
depicted
casually
linking
##will
するのに
##ippers
squares
いい
dame
electrom
444
##테르
##worthy
equilibrium
610
mph
oricon
##aho
서양
신성
scrap
##배우
honesty
내용을
헨리
##てもある
속에서
dors
xl
##cos
어린이
##테인먼트
unrelated
숭
charming
frankly
saga
zinc
massacre
b9
ったと
nim
kingston
준우승
jacobs
##チェーン
pinch
##크라이나
peanut
shattered
이성
tires
456
498
appendix
고유
후손
sequel
##unciation
physic
wonders
fixing
1948년
taiwanese
lantern
のインタヒュー
##リャ
서버
학술
rhodes
supernatural
전혀
hesit
1810
filters
1966년
tad
organizing
##받은
ict
サンテー
leuk
glimp
장치
モーニンク
traumatic
ルール
##ストラン
definitive
##トライハー
aloud
fores
sorrow
わすか
bros
##차를
##었으나
##クラシック
suscept
manipulate
conjunction
jenkins
clamp
##되었는데
satisfying
##ifu
##ソリン
##レヒュー
ライウ
##andez
vegan
いては
1949년
##크의
##ティナ
suburb
billions
folding
##kan
464
##シンカー
maple
##메달을
1개
😏😏
##ste
spectacular
##もり
이민
ella
teachings
##슬라
glimpse
isis
##ryl
gazed
カム
##gom
ナショナル
451
##랭
##をはしめ
##inis
장착
p3
이정
##ウィチ
##forward
##iscal
oracle
alignment
rendered
joking
plains
##てあると
##ovan
스미
powell
gibson
한나라
typh
コーラス
a6
interim
traders
간주
interviewed
neurologist
キャラクターテサイン
sudan
donations
##비는
##ᆷ입
られない
아르헨티나
##에이
전철
armenian
##bies
casey
マス
노예
443
442
참석
carrie
header
avoc
김종
pigs
대상으로
##자들
##aires
mck
navframe
cooler
マシ
casualties
harassment
9000
##hai
원주
##ーニャ
##np
응용
のハラ
betty
취급
뜻한다
adelaide
ちょう
ハワイ
453
##レーサー
발표했다
##opoly
phases
##bral
##bee
505
연재
##력에
ps3
ホンタ
systemic
collaborative
##content
エトワート
##gence
오프
##족의
tribune
と2
vinyl
にフロ
##dong
##면이
라인
regulated
##ネの
feathers
우선
burial
cardiov
savage
##ケーションス
cohen
##단으로
시작되었다
리더
##dal
dee
pathway
precip
##ンタート
correction
claude
pep
sailed
귀국
invasive
##stock
sapp
##week
helper
solomon
건국
총리
##worm
firefox
ミット
spill
##nea
##ヘルリン
베를
napoleon
##oor
microph
breach
##rington
considers
homepage
1の
##ра
##izable
##면에서
##カリフォルニア
g1
リアル
카이
のアル
friction
ammun
recreation
[...]
